<unk>	0
<s>	0
</s>	0
▁t	-0
▁a	-1
in	-2
▁th	-3
er	-4
▁the	-5
on	-6
en	-7
at	-8
re	-9
or	-10
▁w	-11
▁s	-12
▁c	-13
▁p	-14
ing	-15
an	-16
▁m	-17
▁l	-18
it	-19
▁o	-20
is	-21
ro	-22
de	-23
▁to	-24
es	-25
▁f	-26
ed	-27
▁in	-28
ion	-29
▁an	-30
▁of	-31
al	-32
▁b	-33
▁mo	-34
ex	-35
mp	-36
ge	-37
ic	-38
ar	-39
▁and	-40
del	-41
▁is	-42
▁model	-43
ut	-44
us	-45
et	-46
▁pro	-47
▁d	-48
ct	-49
il	-50
gu	-51
▁we	-52
ent	-53
as	-54
age	-55
▁g	-56
▁h	-57
▁(	-58
le	-59
▁T	-60
▁that	-61
angu	-62
ra	-63
ext	-64
anguage	-65
ve	-66
ab	-67
ly	-68
▁n	-69
▁language	-70
ch	-71
▁al	-72
ow	-73
ken	-74
ig	-75
st	-76
▁Th	-77
ation	-78
▁token	-79
ity	-80
▁prob	-81
▁de	-82
▁re	-83
ul	-84
ter	-85
▁for	-86
ce	-87
▁as	-88
▁con	-89
▁L	-90
▁co	-91
ener	-92
▁models	-93
▁e	-94
abil	-95
co	-96
▁wor	-97
▁on	-98
ers	-99
▁us	-100
rain	-101
▁are	-102
ate	-103
▁probabil	-104
amp	-105
▁pre	-106
▁gener	-107
rom	-108
os	-109
ke	-110
th	-111
▁from	-112
▁word	-113
ur	-114
▁wh	-115
ri	-116
▁C	-117
▁7	-118
est	-119
▁be	-120
▁or	-121
▁ex	-122
▁A	-123
cod	-124
▁can	-125
▁it	-126
qu	-127
un	-128
ith	-129
▁F	-130
▁W	-131
▁by	-132
▁probability	-133
ap	-134
if	-135
ike	-136
ist	-137
▁2	-138
▁text	-139
ll	-140
▁v	-141
▁The	-142
ive	-143
▁tokens	-144
orm	-145
▁so	-146
▁7.	-147
▁like	-148
▁.	-149
igh	-150
ure	-151
▁ch	-152
raining	-153
im	-154
▁with	-155
▁se	-156
▁1	-157
mpt	-158
se	-159
▁I	-160
▁M	-161
ampl	-162
arge	-163
▁prompt	-164
▁S	-165
ies	-166
form	-167
apter	-168
▁le	-169
▁dat	-170
▁comp	-171
▁cont	-172
▁this	-173
ir	-174
pe	-175
▁k	-176
ran	-177
▁20	-178
▁et	-179
ence	-180
coder	-181
ot	-182
ach	-183
ay	-184
em	-185
og	-186
pl	-187
put	-188
rib	-189
▁Ch	-190
ction	-191
▁P	-192
▁We	-193
ding	-194
ition	-195
▁next	-196
ave	-197
dic	-198
▁qu	-199
▁su	-200
ther	-201
▁words	-202
▁y	-203
▁en	-204
▁st	-205
).	-206
all	-207
ich	-208
▁large	-209
▁i	-210
ution	-211
ampling	-212
ks	-213
um	-214
ant	-215
oss	-216
▁at	-217
ample	-218
am	-219
str	-220
ver	-221
dict	-222
▁cor	-223
▁have	-224
▁predict	-225
▁do	-226
▁int	-227
▁dist	-228
ations	-229
▁generate	-230
▁sampling	-231
GE	-232
du	-233
ally	-234
▁all	-235
ribution	-236
▁distribution	-237
so	-238
▁E	-239
▁In	-240
▁ab	-241
ight	-242
estion	-243
▁which	-244
sw	-245
ect	-246
▁comput	-247
▁question	-248
.,	-249
iv	-250
▁•	-251
act	-252
ere	-253
▁LA	-254
▁202	-255
▁Chapter	-256
▁example	-257
ds	-258
iz	-259
ma	-260
ss	-261
▁data	-262
..	-263
ac	-264
fer	-265
▁ne	-266
▁out	-267
▁each	-268
▁they	-269
ft	-270
ign	-271
ult	-272
▁ar	-273
▁me	-274
▁per	-275
▁tas	-276
▁sent	-277
ak	-278
om	-279
arn	-280
ated	-281
erat	-282
swer	-283
▁other	-284
training	-285
el	-286
oo	-287
ess	-288
▁sh	-289
rans	-290
▁par	-291
▁high	-292
▁more	-293
▁training	-294
ill	-295
now	-296
▁ev	-297
▁spe	-298
▁learn	-299
ag	-300
ci	-301
alu	-302
ous	-303
rect	-304
▁abo	-305
▁use	-306
ating	-307
▁also	-308
▁know	-309
▁used	-310
LM	-311
ain	-312
ful	-313
mon	-314
ose	-315
▁sy	-316
▁inc	-317
▁log	-318
NG	-319
ad	-320
oc	-321
op	-322
ary	-323
▁ac	-324
▁te	-325
stem	-326
▁res	-327
▁over	-328
rained	-329
▁these	-330
▁context	-331
▁O	-332
max	-333
▁ad	-334
ment	-335
▁LLM	-336
▁cho	-337
ities	-338
▁call	-339
dition	-340
erature	-341
▁output	-342
▁r	-343
aus	-344
ong	-345
stru	-346
▁som	-347
▁system	-348
mperature	-349
ug	-350
etw	-351
▁Wh	-352
▁sa	-353
ical	-354
▁dif	-355
ftmax	-356
▁This	-357
▁softmax	-358
0.	-359
su	-360
▁τ	-361
pro	-362
chit	-363
reed	-364
▁7.1	-365
▁how	-366
▁set	-367
▁ver	-368
▁way	-369
▁web	-370
ative	-371
ecture	-372
▁about	-373
▁decod	-374
▁archit	-375
▁differ	-376
▁architecture	-377
ib	-378
ol	-379
▁3	-380
▁=	-381
▁R	-382
any	-383
ine	-384
ore	-385
ugh	-386
ust	-387
▁An	-388
▁fo	-389
▁un	-390
rodu	-391
▁For	-392
reedy	-393
uning	-394
▁loss	-395
▁mean	-396
▁their	-397
▁answer	-398
▁correct	-399
▁introdu	-400
struction	-401
ER	-402
UA	-403
vi	-404
▁H	-405
ack	-406
ice	-407
▁...	-408
▁imp	-409
▁low	-410
▁very	-411
▁input	-412
▁trans	-413
▁called	-414
▁condition	-415
▁different	-416
▁pretraining	-417
▁probabilities	-418
),	-419
lu	-420
ms	-421
▁D	-422
▁u	-423
eth	-424
uld	-425
▁pe	-426
▁yo	-427
abul	-428
ased	-429
llow	-430
plex	-431
sign	-432
▁its	-433
▁kin	-434
▁voc	-435
▁many	-436
▁follow	-437
▁greedy	-438
▁likely	-439
▁vocabul	-440
▁decoding	-441
DE	-442
LS	-443
ODE	-444
led	-445
NGUA	-446
ates	-447
ause	-448
ible	-449
▁Fig	-450
▁but	-451
▁giv	-452
▁pri	-453
ODELS	-454
▁corp	-455
▁issu	-456
▁show	-457
▁will	-458
NGUAGE	-459
quence	-460
▁datas	-461
▁evalu	-462
plexity	-463
▁MODELS	-464
▁proble	-465
▁chapter	-466
formation	-467
▁LANGUAGE	-468
▁vocabulary	-469
▁instruction	-470
▁temperature	-471
▁“	-472
RGE	-473
dom	-474
get	-475
ial	-476
igu	-477
pen	-478
▁em	-479
▁if	-480
able	-481
ople	-482
▁com	-483
▁has	-484
▁one	-485
▁our	-486
etwor	-487
igure	-488
▁fact	-489
▁most	-490
▁poss	-491
▁test	-492
▁than	-493
▁them	-494
former	-495
▁LARGE	-496
▁logit	-497
▁Figure	-498
▁people	-499
▁dataset	-500
▁decoder	-501
▁encoder	-502
▁trained	-503
▁questions	-504
PT	-505
ip	-506
py	-507
▁?	-508
▁B	-509
▁N	-510
ass	-511
der	-512
ort	-513
ree	-514
▁si	-515
akes	-516
just	-517
▁acc	-518
▁ran	-519
▁see	-520
▁tim	-521
iment	-522
▁long	-523
▁some	-524
▁task	-525
▁inter	-526
▁tasks	-527
▁networ	-528
▁Language	-529
▁possible	-530
▁sequence	-531
▁generation	-532
ie	-533
are	-534
ety	-535
ric	-536
▁bo	-537
ross	-538
vers	-539
▁get	-540
▁num	-541
ledge	-542
▁cons	-543
▁simp	-544
▁time	-545
▁well	-546
▁issues	-547
▁random	-548
▁result	-549
▁following	-550
▁introduce	-551
▁knowledge	-552
▁information	-553
LU	-554
cy	-555
ec	-556
ia	-557
MLU	-558
ake	-559
ase	-560
ces	-561
raw	-562
ten	-563
▁En	-564
fety	-565
ress	-566
▁any	-567
▁cre	-568
▁dis	-569
▁fin	-570
▁har	-571
ilter	-572
▁MMLU	-573
▁just	-574
▁numb	-575
▁part	-576
▁such	-577
▁when	-578
amples	-579
gative	-580
monstr	-581
▁network	-582
▁perform	-583
▁demonstr	-584
▁perplexity	-585
HA	-586
ix	-587
▁+	-588
▁‘	-589
ast	-590
cif	-591
ile	-592
one	-593
pre	-594
▁So	-595
▁ag	-596
▁ap	-597
HAPT	-598
ance	-599
irst	-600
▁exp	-601
▁new	-602
itive	-603
▁back	-604
HAPTER	-605
▁inclu	-606
▁CHAPTER	-607
▁examples	-608
▁learning	-609
▁sentiment	-610
▁generating	-611
7.	-612
ep	-613
ff	-614
gg	-615
he	-616
mo	-617
sc	-618
▁−	-619
ath	-620
ics	-621
ish	-622
ize	-623
ual	-624
uch	-625
ura	-626
urn	-627
xic	-628
▁0.	-629
ages	-630
ctor	-631
ough	-632
ropy	-633
▁201	-634
▁7.5	-635
▁aut	-636
▁bec	-637
▁boo	-638
▁ide	-639
erson	-640
▁2020	-641
▁LLMs	-642
▁desc	-643
▁mult	-644
▁priv	-645
▁prop	-646
▁sugg	-647
▁then	-648
▁thin	-649
▁want	-650
▁cross	-651
▁first	-652
▁given	-653
▁might	-654
▁often	-655
▁where	-656
entropy	-657
▁assign	-658
▁logits	-659
▁safety	-660
▁problem	-661
▁demonstrations	-662
1:	-663
ne	-664
ue	-665
▁4	-666
ame	-667
elp	-668
eng	-669
gor	-670
ifi	-671
log	-672
pon	-673
▁.0	-674
▁cl	-675
▁ro	-676
▁sc	-677
▁up	-678
▁ve	-679
amet	-680
cial	-681
king	-682
uman	-683
▁(7.	-684
▁Pre	-685
▁ext	-686
▁met	-687
▁not	-688
▁Thus	-689
▁both	-690
▁disc	-691
▁does	-692
▁help	-693
▁idea	-694
▁your	-695
gorith	-696
▁three	-697
▁users	-698
▁using	-699
etuning	-700
▁contin	-701
▁filter	-702
▁partic	-703
▁specif	-704
▁vector	-705
▁paramet	-706
▁suggest	-707
▁algorith	-708
▁sentence	-709
▁performance	-710
lf	-711
pt	-712
te	-713
to	-714
▁G	-715
▁Z	-716
acy	-717
air	-718
and	-719
ens	-720
erv	-721
fix	-722
▁fl	-723
ases	-724
ince	-725
lect	-726
ould	-727
sent	-728
▁7.6	-729
▁gra	-730
▁saw	-731
▁str	-732
aking	-733
▁That	-734
▁What	-735
▁even	-736
▁harm	-737
▁into	-738
▁kind	-739
▁less	-740
▁Large	-741
▁based	-742
▁incre	-743
▁means	-744
▁common	-745
▁corpus	-746
▁prefix	-747
▁respon	-748
▁computing	-749
▁prompting	-750
▁conditional	-751
▁architectures	-752
00	-753
20	-754
di	-755
la	-756
li	-757
sh	-758
yp	-759
▁)	-760
ded	-761
mar	-762
ors	-763
ste	-764
ude	-765
ves	-766
▁.2	-767
▁po	-768
▁tw	-769
cess	-770
lear	-771
plic	-772
prob	-773
ural	-774
▁act	-775
▁fun	-776
▁gro	-777
▁ret	-778
▁was	-779
ences	-780
etter	-781
gress	-782
ormal	-783
uracy	-784
vious	-785
▁meas	-786
▁step	-787
▁user	-788
coders	-789
ording	-790
ortant	-791
▁Trans	-792
▁could	-793
▁kinds	-794
▁produ	-795
▁repre	-796
▁since	-797
▁toxic	-798
▁train	-799
decoder	-800
▁Answer	-801
▁choose	-802
▁metric	-803
▁number	-804
▁because	-805
▁convers	-806
▁describ	-807
▁prompts	-808
▁negative	-809
▁according	-810
▁answering	-811
▁important	-812
▁represent	-813
▁transformer	-814
.2	-815
/⌧	-816
1)	-817
ry	-818
▁|	-819
ING	-820
The	-821
ang	-822
aps	-823
ard	-824
ata	-825
ech	-826
exp	-827
fin	-828
ood	-829
ora	-830
unt	-831
vel	-832
ents	-833
ites	-834
lish	-835
rawl	-836
shot	-837
ting	-838
▁7.4	-839
▁Cla	-840
▁add	-841
▁dec	-842
▁est	-843
▁non	-844
▁sub	-845
▁two	-846
ality	-847
ength	-848
ively	-849
otion	-850
right	-851
ually	-852
▁been	-853
▁care	-854
▁give	-855
▁only	-856
▁pass	-857
▁self	-858
▁valu	-859
▁ways	-860
▁what	-861
ically	-862
istant	-863
uition	-864
▁depen	-865
▁shows	-866
ference	-867
ination	-868
ositive	-869
trained	-870
▁Claude	-871
▁better	-872
▁choice	-873
▁person	-874
▁select	-875
▁thanks	-876
▁transl	-877
▁useful	-878
gressive	-879
▁corpora	-880
▁privacy	-881
▁datasets	-882
▁generated	-883
oregressive	-884
▁parameters	-885
▁predicting	-886
▁Transformer	-887
▁computation	-888
▁conditioned	-889
=1	-890
ld	-891
wn	-892
ail	-893
arl	-894
ays	-895
ced	-896
con	-897
end	-898
ese	-899
for	-900
ket	-901
man	-902
rap	-903
uss	-904
▁.3	-905
▁.4	-906
▁As	-907
▁fe	-908
▁tr	-909
▁wi	-910
abel	-911
ason	-912
etho	-913
ions	-914
ious	-915
ized	-916
oses	-917
perv	-918
prop	-919
ular	-920
urse	-921
▁And	-922
▁Eng	-923
▁det	-924
▁div	-925
▁don	-926
▁emb	-927
▁eng	-928
▁eth	-929
▁sco	-930
▁sur	-931
▁you	-932
other	-933
rough	-934
stead	-935
▁Data	-936
▁expl	-937
▁fair	-938
▁left	-939
▁need	-940
▁same	-941
▁take	-942
ctions	-943
pervis	-944
▁again	-945
▁clear	-946
▁estim	-947
▁exact	-948
▁human	-949
▁makes	-950
▁metho	-951
▁takes	-952
▁there	-953
▁under	-954
▁while	-955
ability	-956
ignment	-957
▁course	-958
▁higher	-959
▁normal	-960
▁should	-961
▁speech	-962
▁though	-963
▁weight	-964
▁English	-965
▁assigns	-966
▁compute	-967
▁contain	-968
▁discuss	-969
▁emotion	-970
▁ethical	-971
▁measure	-972
▁process	-973
▁accuracy	-974
▁previous	-975
▁toxicity	-976
▁algorithm	-977
▁including	-978
▁intuition	-979
▁resulting	-980
▁sentences	-981
probability	-982
▁evaluation	-983
▁finetuning	-984
▁particular	-985
▁Pretraining	-986
▁instructions	-987
▁autoregressive	-988
15	-989
LP	-990
ON	-991
ba	-992
gy	-993
ub	-994
uc	-995
wi	-996
▁-	-997
▁5	-998
▁U	-999
▁[	-1000
arg	-1001
een	-1002
ely	-1003
int	-1004
lic	-1005
ory	-1006
ses	-1007
vol	-1008
▁??	-1009
▁Al	-1010
▁If	-1011
▁Mo	-1012
▁Se	-1013
▁Sh	-1014
▁bi	-1015
▁ma	-1016
▁ra	-1017
▁sm	-1018
arch	-1019
baum	-1020
edia	-1021
emat	-1022
igin	-1023
inim	-1024
izen	-1025
lifi	-1026
main	-1027
text	-1028
ward	-1029
▁.08	-1030
▁.15	-1031
▁.33	-1032
▁.44	-1033
▁How	-1034
▁NLP	-1035
▁One	-1036
▁Rec	-1037
▁eff	-1038
▁ent	-1039
▁sci	-1040
▁tal	-1041
▁top	-1042
▁via	-1043
▁who	-1044
eries	-1045
ether	-1046
ketch	-1047
lying	-1048
uring	-1049
▁2024	-1050
▁betw	-1051
▁book	-1052
▁case	-1053
▁chat	-1054
▁divi	-1055
▁ener	-1056
▁form	-1057
▁larg	-1058
▁mach	-1059
▁make	-1060
▁much	-1061
ething	-1062
lement	-1063
lified	-1064
▁books	-1065
▁class	-1066
▁crawl	-1067
▁decre	-1068
▁defin	-1069
▁label	-1070
▁lower	-1071
▁point	-1072
▁right	-1073
▁score	-1074
▁think	-1075
▁world	-1076
▁design	-1077
▁energy	-1078
▁iterat	-1079
▁length	-1080
▁multip	-1081
▁reason	-1082
▁simply	-1083
▁sketch	-1084
izenbaum	-1085
▁between	-1086
▁consist	-1087
▁continu	-1088
▁general	-1089
▁include	-1090
▁instead	-1091
▁meaning	-1092
▁quality	-1093
▁through	-1094
▁weights	-1095
▁computer	-1096
▁describe	-1097
▁function	-1098
▁interact	-1099
▁modeling	-1100
▁personal	-1101
▁problems	-1102
▁specific	-1103
▁alignment	-1104
▁something	-1105
▁iteratively	-1106
▁computational	-1107
+1	-1108
AL	-1109
IZ	-1110
TI	-1111
aw	-1112
cc	-1113
ik	-1114
up	-1115
▁8	-1116
▁9	-1117
▁J	-1118
▁Q	-1119
▁Y	-1120
▁ŷ	-1121
...	-1122
0.5	-1123
IZA	-1124
ask	-1125
bot	-1126
com	-1127
gal	-1128
gin	-1129
ict	-1130
ild	-1131
ire	-1132
let	-1133
lih	-1134
min	-1135
ool	-1136
own	-1137
rem	-1138
rie	-1139
sel	-1140
urr	-1141
▁12	-1142
▁15	-1143
▁EL	-1144
▁It	-1145
▁LM	-1146
▁Or	-1147
▁Re	-1148
▁af	-1149
▁bu	-1150
▁di	-1151
▁he	-1152
▁ob	-1153
▁ta	-1154
TION	-1155
ails	-1156
ards	-1157
cept	-1158
ices	-1159
ific	-1160
ikip	-1161
ject	-1162
like	-1163
ract	-1164
rote	-1165
tere	-1166
ways	-1167
▁(20	-1168
▁0.1	-1169
▁But	-1170
▁Fin	-1171
▁Per	-1172
▁adv	-1173
▁amo	-1174
▁bel	-1175
▁mat	-1176
▁oth	-1177
▁rel	-1178
▁sch	-1179
▁too	-1180
▁upd	-1181
aller	-1182
arles	-1183
dient	-1184
ently	-1185
fully	-1186
raped	-1187
sites	-1188
swers	-1189
verse	-1190
▁2019	-1191
▁best	-1192
▁caus	-1193
▁code	-1194
▁math	-1195
▁rate	-1196
▁repe	-1197
▁scal	-1198
▁seem	-1199
▁true	-1200
▁turn	-1201
▁uses	-1202
arious	-1203
atural	-1204
ecause	-1205
edding	-1206
lihood	-1207
ormous	-1208
selves	-1209
▁ELIZA	-1210
▁Model	-1211
▁There	-1212
▁These	-1213
▁Wikip	-1214
▁above	-1215
▁after	-1216
▁close	-1217
▁doesn	-1218
▁facts	-1219
▁group	-1220
▁invol	-1221
▁minim	-1222
▁state	-1223
▁those	-1224
▁wrote	-1225
▁Recall	-1226
▁amount	-1227
▁domain	-1228
▁extrem	-1229
▁larger	-1230
▁making	-1231
▁others	-1232
▁return	-1233
▁series	-1234
▁string	-1235
▁tuning	-1236
▁values	-1237
pervised	-1238
▁Charles	-1239
▁Encoder	-1240
▁Section	-1241
▁address	-1242
▁answers	-1243
▁details	-1244
▁inverse	-1245
▁machine	-1246
▁methods	-1247
▁numbers	-1248
▁science	-1249
▁scraped	-1250
▁smaller	-1251
▁special	-1252
▁whether	-1253
▁creating	-1254
▁dividing	-1255
▁evaluate	-1256
▁gradient	-1257
▁probable	-1258
▁suggests	-1259
▁websites	-1260
▁Wikipedia	-1261
▁embedding	-1262
▁emotional	-1263
▁filtering	-1264
▁generative	-1265
▁likelihood	-1266
▁prediction	-1267
▁translation	-1268
▁conversation	-1269
):	-1270
0,	-1271
We	-1272
gn	-1273
ph	-1274
sy	-1275
wh	-1276
ws	-1277
▁6	-1278
▁<	-1279
▁x	-1280
ERT	-1281
ace	-1282
ade	-1283
ady	-1284
aly	-1285
cum	-1286
err	-1287
fit	-1288
ici	-1289
ite	-1290
itu	-1291
ley	-1292
mer	-1293
ost	-1294
pec	-1295
ram	-1296
vie	-1297
▁1.	-1298
▁25	-1299
▁Ag	-1300
▁Eq	-1301
▁Te	-1302
▁bl	-1303
▁go	-1304
▁ph	-1305
▁pr	-1306
▁sp	-1307
▁‘‘	-1308
ants	-1309
atch	-1310
fore	-1311
ider	-1312
itig	-1313
ives	-1314
mmar	-1315
ness	-1316
olog	-1317
osed	-1318
otyp	-1319
ower	-1320
ries	-1321
soci	-1322
stan	-1323
stit	-1324
uned	-1325
very	-1326
▁.25	-1327
▁0.9	-1328
▁1.2	-1329
▁7.2	-1330
▁7.3	-1331
▁7.7	-1332
▁Ass	-1333
▁Who	-1334
▁ass	-1335
▁att	-1336
▁big	-1337
▁end	-1338
▁equ	-1339
▁err	-1340
▁fut	-1341
▁had	-1342
▁may	-1343
▁med	-1344
▁off	-1345
▁opt	-1346
▁rec	-1347
▁run	-1348
▁say	-1349
ackie	-1350
alluc	-1351
aring	-1352
asked	-1353
elley	-1354
istic	-1355
izing	-1356
ready	-1357
▁-0.5	-1358
▁2021	-1359
▁2023	-1360
▁2025	-1361
▁Chan	-1362
▁Fran	-1363
▁From	-1364
▁Spec	-1365
▁When	-1366
▁abus	-1367
▁acqu	-1368
▁conc	-1369
▁copy	-1370
▁dial	-1371
▁flow	-1372
▁here	-1373
▁open	-1374
▁read	-1375
▁remo	-1376
▁rese	-1377
▁sens	-1378
▁situ	-1379
▁were	-1380
atedly	-1381
cially	-1382
ifiers	-1383
otypes	-1384
proach	-1385
propag	-1386
rectly	-1387
tuning	-1388
uality	-1389
urrent	-1390
▁(2020	-1391
▁analy	-1392
▁begin	-1393
▁being	-1394
▁cause	-1395
▁docum	-1396
▁impro	-1397
▁indic	-1398
▁langu	-1399
▁legal	-1400
▁mitig	-1401
▁power	-1402
▁pract	-1403
▁prior	-1404
▁provi	-1405
▁shown	-1406
▁speak	-1407
▁stere	-1408
▁teach	-1409
context	-1410
ematics	-1411
▁2020).	-1412
▁Jackie	-1413
▁Models	-1414
▁Origin	-1415
▁advice	-1416
▁always	-1417
▁associ	-1418
▁contam	-1419
▁create	-1420
▁effect	-1421
▁engage	-1422
▁entire	-1423
▁future	-1424
▁halluc	-1425
▁intera	-1426
▁neural	-1427
▁points	-1428
▁simple	-1429
▁thinks	-1430
ditional	-1431
negative	-1432
positive	-1433
standing	-1434
▁Another	-1435
▁Shelley	-1436
▁Species	-1437
▁already	-1438
▁chatbot	-1439
▁exactly	-1440
▁explore	-1441
▁factors	-1442
▁harmful	-1443
▁helpful	-1444
▁highest	-1445
▁labeled	-1446
▁natural	-1447
▁outputs	-1448
▁private	-1449
▁setting	-1450
▁talking	-1451
▁testing	-1452
▁updated	-1453
▁various	-1454
▁Training	-1455
▁approach	-1456
▁chapters	-1457
▁continue	-1458
▁directly	-1459
▁enormous	-1460
▁estimate	-1461
▁multiple	-1462
▁powerful	-1463
▁research	-1464
▁Assistant	-1465
▁assistant	-1466
▁carefully	-1467
▁copyright	-1468
▁generally	-1469
▁generates	-1470
▁increases	-1471
▁languages	-1472
▁responses	-1473
▁Perplexity	-1474
▁Weizenbaum	-1475
▁algorithms	-1476
▁backpropag	-1477
▁definition	-1478
▁introduced	-1479
▁normalized	-1480
▁preference	-1481
▁pretrained	-1482
▁repeatedly	-1483
▁simplified	-1484
▁themselves	-1485
▁classifiers	-1486
▁mathematics	-1487
▁stereotypes	-1488
▁contamination	-1489
▁conversations	-1490
"?	-1491
.1	-1492
.3	-1493
1,	-1494
19	-1495
7,	-1496
8)	-1497
96	-1498
:”	-1499
AI	-1500
CE	-1501
Ch	-1502
ND	-1503
ST	-1504
af	-1505
ao	-1506
ls	-1507
mm	-1508
od	-1509
of	-1510
ou	-1511
oy	-1512
wt	-1513
▁,	-1514
▁V	-1515
▁X	-1516
▁z	-1517
▁∼	-1518
6).	-1519
AIN	-1520
ERA	-1521
GEN	-1522
afe	-1523
ape	-1524
cho	-1525
dam	-1526
ean	-1527
elf	-1528
ero	-1529
ert	-1530
iol	-1531
ise	-1532
oth	-1533
ots	-1534
out	-1535
ren	-1536
ris	-1537
riv	-1538
sch	-1539
set	-1540
sis	-1541
the	-1542
ule	-1543
urp	-1544
urs	-1545
val	-1546
wth	-1547
xim	-1548
▁1,	-1549
▁10	-1550
▁16	-1551
▁2-	-1552
▁3.	-1553
▁At	-1554
▁De	-1555
▁Py	-1556
▁SA	-1557
▁TR	-1558
▁av	-1559
▁du	-1560
▁no	-1561
▁pl	-1562
▁wt	-1563
Long	-1564
ably	-1565
ands	-1566
ange	-1567
arry	-1568
cing	-1569
cogn	-1570
cted	-1571
date	-1572
deed	-1573
dent	-1574
ency	-1575
esis	-1576
ever	-1577
hors	-1578
ican	-1579
icro	-1580
iece	-1581
ieve	-1582
inom	-1583
ists	-1584
ited	-1585
late	-1586
line	-1587
logy	-1588
mark	-1589
ning	-1590
ocus	-1591
onop	-1592
pect	-1593
ploy	-1594
plus	-1595
port	-1596
rawn	-1597
ream	-1598
reat	-1599
safe	-1600
seen	-1601
sequ	-1602
tern	-1603
ustr	-1604
vels	-1605
ving	-1606
▁(19	-1607
▁10.	-1608
▁100	-1609
▁7.8	-1610
▁AND	-1611
▁Con	-1612
▁GEN	-1613
▁LCE	-1614
▁Not	-1615
▁Tay	-1616
▁amp	-1617
▁ask	-1618
▁ben	-1619
▁bit	-1620
▁box	-1621
▁bul	-1622
▁col	-1623
▁ear	-1624
▁emp	-1625
▁far	-1626
▁few	-1627
▁ful	-1628
▁fur	-1629
▁ill	-1630
▁lay	-1631
▁loo	-1632
▁mar	-1633
▁mem	-1634
▁occ	-1635
▁pot	-1636
▁pub	-1637
▁sim	-1638
▁typ	-1639
ading	-1640
alize	-1641
ately	-1642
ather	-1643
based	-1644
ental	-1645
ering	-1646
erous	-1647
force	-1648
ility	-1649
ither	-1650
itial	-1651
omics	-1652
osing	-1653
ownst	-1654
rices	-1655
rompt	-1656
▁2022	-1657
▁7.10	-1658
▁7.11	-1659
▁BERT	-1660
▁Here	-1661
▁Pile	-1662
▁They	-1663
▁aver	-1664
▁bill	-1665
▁done	-1666
▁feed	-1667
▁flat	-1668
▁good	-1669
▁hist	-1670
▁lead	-1671
▁lots	-1672
▁mist	-1673
▁move	-1674
▁purp	-1675
▁redu	-1676
▁rein	-1677
▁rele	-1678
▁role	-1679
▁room	-1680
▁rule	-1681
▁seen	-1682
▁sign	-1683
▁size	-1684
▁toge	-1685
▁vast	-1686
▁vers	-1687
▁viol	-1688
▁zero	-1689
AINING	-1690
ential	-1691
ention	-1692
ildren	-1693
ipants	-1694
ishing	-1695
orrect	-1696
rawled	-1697
rieval	-1698
termin	-1699
▁2017,	-1700
▁Again	-1701
▁Human	-1702
▁Three	-1703
▁abuse	-1704
▁activ	-1705
▁adult	-1706
▁allow	-1707
▁batch	-1708
▁below	-1709
▁carry	-1710
▁chain	-1711
▁comes	-1712
▁count	-1713
▁drawn	-1714
▁error	-1715
▁every	-1716
▁exper	-1717
▁focus	-1718
▁gives	-1719
▁harms	-1720
▁issue	-1721
▁maxim	-1722
▁monop	-1723
▁novel	-1724
▁optim	-1725
▁phone	-1726
▁piece	-1727
▁scale	-1728
▁seems	-1729
▁sites	-1730
▁space	-1731
▁stage	-1732
▁taken	-1733
▁thing	-1734
▁thous	-1735
▁turns	-1736
▁would	-1737
ERATION	-1738
Longpre	-1739
inomial	-1740
isition	-1741
merican	-1742
osition	-1743
plicate	-1744
▁(2020)	-1745
▁2021).	-1746
▁2025).	-1747
▁across	-1748
▁altern	-1749
▁asking	-1750
▁became	-1751
▁before	-1752
▁biases	-1753
▁causal	-1754
▁depend	-1755
▁deploy	-1756
▁during	-1757
▁engine	-1758
▁fundam	-1759
▁giving	-1760
▁groups	-1761
▁growth	-1762
▁involv	-1763
▁levels	-1764
▁masked	-1765
▁memory	-1766
▁passed	-1767
▁public	-1768
▁recogn	-1769
▁remark	-1770
▁remove	-1771
▁sample	-1772
▁school	-1773
▁stages	-1774
▁taking	-1775
▁toward	-1776
▁unsafe	-1777
▁unseen	-1778
atically	-1779
decoders	-1780
enderson	-1781
ological	-1782
▁Because	-1783
▁Quality	-1784
▁actions	-1785
▁amounts	-1786
▁another	-1787
▁choices	-1788
▁compare	-1789
▁consent	-1790
▁current	-1791
▁depends	-1792
▁descent	-1793
▁element	-1794
▁filters	-1795
▁further	-1796
▁illustr	-1797
▁initial	-1798
▁learned	-1799
▁medical	-1800
▁provide	-1801
▁showing	-1802
▁surplus	-1803
▁systems	-1804
▁tokeniz	-1805
▁usually	-1806
▁without	-1807
ownstream	-1808
▁TRAINING	-1809
▁analysis	-1810
▁children	-1811
▁choosing	-1812
▁computed	-1813
▁consider	-1814
▁contexts	-1815
▁decoders	-1816
▁decrease	-1817
▁designed	-1818
▁filtered	-1819
▁includes	-1820
▁increase	-1821
▁minimize	-1822
▁positive	-1823
▁practice	-1824
▁randomly	-1825
▁response	-1826
▁speakers	-1827
▁together	-1828
▁comparing	-1829
▁countries	-1830
▁documents	-1831
▁duplicate	-1832
▁extremely	-1833
▁implement	-1834
▁parameter	-1835
▁potential	-1836
▁retrieval	-1837
▁sensitive	-1838
▁suggested	-1839
▁thousands	-1840
▁transform	-1841
temperature	-1842
▁GENERATION	-1843
▁containing	-1844
▁embeddings	-1845
▁experiment	-1846
▁situations	-1847
▁supervised	-1848
▁underlying	-1849
▁Instruction	-1850
▁Temperature	-1851
▁acquisition	-1852
▁engineering	-1853
▁evaluations	-1854
▁fundamental	-1855
▁interacting	-1856
▁interaction	-1857
▁multinomial	-1858
▁predictable	-1859
▁recognition	-1860
▁continuation	-1861
▁participants	-1862
▁hallucination	-1863
▁understanding	-1864
▁representation	-1865
(“	-1866
2,	-1867
4)	-1868
59	-1869
95	-1870
ES	-1871
FT	-1872
IC	-1873
II	-1874
MP	-1875
RB	-1876
TH	-1877
Wh	-1878
ah	-1879
be	-1880
dy	-1881
eh	-1882
ha	-1883
id	-1884
we	-1885
yt	-1886
zz	-1887
|]	-1888
|“	-1889
··	-1890
▁0	-1891
▁θ	-1892
)).	-1893
+1]	-1894
000	-1895
:”)	-1896
Bro	-1897
Dod	-1898
MPL	-1899
STM	-1900
UAT	-1901
VAL	-1902
agn	-1903
ama	-1904
ann	-1905
arm	-1906
ars	-1907
art	-1908
awa	-1909
clu	-1910
flu	-1911
fly	-1912
ges	-1913
gue	-1914
her	-1915
hib	-1916
hip	-1917
ian	-1918
ick	-1919
ied	-1920
ify	-1921
ily	-1922
ird	-1923
jor	-1924
les	-1925
lex	-1926
mic	-1927
old	-1928
oly	-1929
omp	-1930
orp	-1931
pic	-1932
ply	-1933
ral	-1934
spe	-1935
ted	-1936
til	-1937
tow	-1938
uit	-1939
und	-1940
ute	-1941
”|“	-1942
▁11	-1943
▁13	-1944
▁17	-1945
▁18	-1946
▁2.	-1947
▁21	-1948
▁22	-1949
▁23	-1950
▁3,	-1951
▁3?	-1952
▁6.	-1953
▁8.	-1954
▁9.	-1955
▁AI	-1956
▁Af	-1957
▁Li	-1958
▁Ll	-1959
▁Ne	-1960
▁Of	-1961
▁Ro	-1962
▁Sa	-1963
▁St	-1964
▁To	-1965
▁US	-1966
▁Un	-1967
▁Us	-1968
▁Yn	-1969
▁[1	-1970
▁es	-1971
▁gu	-1972
▁im	-1973
▁lo	-1974
▁ut	-1975
▁wr	-1976
▁ye	-1977
▁yt	-1978
ICAL	-1979
adig	-1980
ahli	-1981
airs	-1982
also	-1983
alth	-1984
anda	-1985
anis	-1986
apit	-1987
asic	-1988
ater	-1989
atic	-1990
awls	-1991
cipl	-1992
cond	-1993
coph	-1994
dely	-1995
dern	-1996
econ	-1997
ects	-1998
efit	-1999
ends	-2000
ense	-2001
eply	-2002
etic	-2003
etim	-2004
fess	-2005
gmax	-2006
haps	-2007
havi	-2008
inan	-2009
ixed	-2010
lean	-2011
lier	-2012
mary	-2013
mean	-2014
most	-2015
ogue	-2016
oken	-2017
oped	-2018
page	-2019
pris	-2020
raph	-2021
rast	-2022
ried	-2023
rive	-2024
roun	-2025
serv	-2026
sour	-2027
sych	-2028
thon	-2029
thro	-2030
ught	-2031
umer	-2032
vant	-2033
view	-2034
wise	-2035
▁.02	-2036
▁.07	-2037
▁.59	-2038
▁.95	-2039
▁12,	-2040
▁15.	-2041
▁196	-2042
▁??)	-2043
▁Acc	-2044
▁Eth	-2045
▁Let	-2046
▁Own	-2047
▁PII	-2048
▁Ran	-2049
▁SFT	-2050
▁Sum	-2051
▁Web	-2052
▁Why	-2053
▁You	-2054
▁age	-2055
▁art	-2056
▁aug	-2057
▁avo	-2058
▁day	-2059
▁fam	-2060
▁fra	-2061
▁hyp	-2062
▁isn	-2063
▁let	-2064
▁lif	-2065
▁lim	-2066
▁mal	-2067
▁mis	-2068
▁mod	-2069
▁now	-2070
▁own	-2071
▁pat	-2072
▁vie	-2073
Brown	-2074
Cheng	-2075
Dodge	-2076
ITION	-2077
acter	-2078
anges	-2079
antic	-2080
cepts	-2081
comes	-2082
coura	-2083
ctive	-2084
ehman	-2085
ening	-2086
erial	-2087
ffici	-2088
hibit	-2089
iform	-2090
igram	-2091
inear	-2092
ingle	-2093
isely	-2094
learn	-2095
lling	-2096
oards	-2097
onies	-2098
ories	-2099
osely	-2100
ostic	-2101
plied	-2102
rican	-2103
stein	-2104
toxic	-2105
tuned	-2106
ulate	-2107
▁(7.1	-2108
▁+...	-2109
▁7.12	-2110
▁7.13	-2111
▁7.14	-2112
▁7.15	-2113
▁7.16	-2114
▁Alth	-2115
▁Comp	-2116
▁EVAL	-2117
▁Fine	-2118
▁LSTM	-2119
▁Loss	-2120
▁Many	-2121
▁Mary	-2122
▁More	-2123
▁Much	-2124
▁Note	-2125
▁Priv	-2126
▁Self	-2127
▁Such	-2128
▁appe	-2129
▁area	-2130
▁aren	-2131
▁baps	-2132
▁bear	-2133
▁brie	-2134
▁buil	-2135
▁cast	-2136
▁char	-2137
▁cost	-2138
▁dang	-2139
▁daps	-2140
▁espe	-2141
▁full	-2142
▁gets	-2143
▁hand	-2144
▁item	-2145
▁look	-2146
▁lost	-2147
▁main	-2148
▁mark	-2149
▁mech	-2150
▁page	-2151
▁pict	-2152
▁prin	-2153
▁prox	-2154
▁rare	-2155
▁rest	-2156
▁rich	-2157
▁sets	-2158
▁stat	-2159
▁talk	-2160
▁ther	-2161
▁tone	-2162
▁verb	-2163
▁wasn	-2164
▁work	-2165
▁yaps	-2166
MPLING	-2167
UATING	-2168
ademic	-2169
aganda	-2170
ahlias	-2171
apital	-2172
atives	-2173
cepted	-2174
choice	-2175
ciples	-2176
coding	-2177
coming	-2178
didate	-2179
ducted	-2180
duplic	-2181
ecting	-2182
ematic	-2183
ension	-2184
erties	-2185
etimes	-2186
havior	-2187
herent	-2188
iction	-2189
iginal	-2190
istics	-2191
jected	-2192
mented	-2193
onents	-2194
ortion	-2195
pended	-2196
propri	-2197
rompts	-2198
school	-2199
specif	-2200
system	-2201
▁2019)	-2202
▁2019;	-2203
▁2020)	-2204
▁2020,	-2205
▁2020;	-2206
▁2021)	-2207
▁2023)	-2208
▁7.10(	-2209
▁7.5.2	-2210
▁Gener	-2211
▁Llama	-2212
▁Which	-2213
▁agent	-2214
▁agree	-2215
▁alone	-2216
▁apply	-2217
▁areas	-2218
▁autom	-2219
▁basic	-2220
▁black	-2221
▁build	-2222
▁cases	-2223
▁const	-2224
▁devel	-2225
▁discl	-2226
▁extra	-2227
▁finet	-2228
▁found	-2229
▁gramm	-2230
▁guess	-2231
▁ident	-2232
▁influ	-2233
▁known	-2234
▁later	-2235
▁least	-2236
▁leave	-2237
▁major	-2238
▁micro	-2239
▁movie	-2240
▁multi	-2241
▁pages	-2242
▁pairs	-2243
▁psych	-2244
▁quite	-2245
▁roses	-2246
▁shape	-2247
▁still	-2248
▁texts	-2249
▁until	-2250
▁usage	-2251
▁value	-2252
▁whose	-2253
▁years	-2254
athetic	-2255
because	-2256
cluding	-2257
forward	-2258
iciency	-2259
ificant	-2260
ificial	-2261
jective	-2262
mmaries	-2263
othesis	-2264
riedman	-2265
thropic	-2266
towards	-2267
▁1966).	-2268
▁2020),	-2269
▁2023).	-2270
▁2024).	-2271
▁Filter	-2272
▁France	-2273
▁Greedy	-2274
▁Python	-2275
▁Random	-2276
▁Safety	-2277
▁Sample	-2278
▁Taking	-2279
▁actual	-2280
▁adjust	-2281
▁almost	-2282
▁applic	-2283
▁argmax	-2284
▁arrive	-2285
▁bullet	-2286
▁change	-2287
▁comman	-2288
▁deeply	-2289
▁discri	-2290
▁either	-2291
▁enough	-2292
▁explan	-2293
▁extent	-2294
▁format	-2295
▁health	-2296
▁histor	-2297
▁impact	-2298
▁implic	-2299
▁indeed	-2300
▁intern	-2301
▁layers	-2302
▁linear	-2303
▁longer	-2304
▁method	-2305
▁modern	-2306
▁mostly	-2307
▁offens	-2308
▁passes	-2309
▁prefer	-2310
▁prices	-2311
▁racial	-2312
▁rather	-2313
▁reduce	-2314
▁report	-2315
▁scores	-2316
▁second	-2317
▁single	-2318
▁states	-2319
▁strong	-2320
▁subset	-2321
▁sycoph	-2322
▁taught	-2323
▁things	-2324
▁typing	-2325
▁widely	-2326
agnostic	-2327
kenstein	-2328
learning	-2329
sequence	-2330
termined	-2331
▁African	-2332
▁Finally	-2333
▁Privacy	-2334
▁ability	-2335
▁authors	-2336
▁average	-2337
▁becomes	-2338
▁believe	-2339
▁benefit	-2340
▁briefly	-2341
▁capital	-2342
▁changes	-2343
▁chooses	-2344
▁complet	-2345
▁complex	-2346
▁constit	-2347
▁content	-2348
▁creates	-2349
▁dahlias	-2350
▁earlier	-2351
▁exhibit	-2352
▁finding	-2353
▁flatter	-2354
▁flowers	-2355
▁forcing	-2356
▁getting	-2357
▁grammar	-2358
▁however	-2359
▁improve	-2360
▁limited	-2361
▁mention	-2362
▁metrics	-2363
▁modeled	-2364
▁obvious	-2365
▁paradig	-2366
▁peonies	-2367
▁picture	-2368
▁produce	-2369
▁profess	-2370
▁related	-2371
▁results	-2372
▁running	-2373
▁scaling	-2374
▁selects	-2375
▁specify	-2376
▁subsequ	-2377
▁suffici	-2378
▁surpris	-2379
▁surroun	-2380
▁teacher	-2381
▁thought	-2382
▁uniform	-2383
▁version	-2384
Henderson	-2385
ationship	-2386
economics	-2387
pervision	-2388
stitution	-2389
▁Accuracy	-2390
▁Although	-2391
▁American	-2392
▁Decoders	-2393
▁Encoders	-2394
▁SAMPLING	-2395
▁Sampling	-2396
▁academic	-2397
▁actually	-2398
▁appropri	-2399
▁assigned	-2400
▁behavior	-2401
▁billions	-2402
▁concepts	-2403
▁consists	-2404
▁consumer	-2405
▁contrast	-2406
▁dialects	-2407
▁dialogue	-2408
▁elements	-2409
▁encoders	-2410
▁fairness	-2411
▁formally	-2412
▁improves	-2413
▁interest	-2414
▁involved	-2415
▁material	-2416
▁measures	-2417
▁mechanis	-2418
▁mistakes	-2419
▁mitigate	-2420
▁monopoly	-2421
▁networks	-2422
▁original	-2423
▁position	-2424
▁predicts	-2425
▁produced	-2426
▁prompted	-2427
▁proposed	-2428
▁purposes	-2429
▁relevant	-2430
▁sections	-2431
▁selected	-2432
▁sketched	-2433
▁sketches	-2434
▁strength	-2435
▁teaching	-2436
▁thinking	-2437
▁upcoming	-2438
Weizenbaum	-2439
finetuning	-2440
supervised	-2441
▁addresses	-2442
▁amplified	-2443
▁augmented	-2444
▁candidate	-2445
▁character	-2446
▁concisely	-2447
▁conducted	-2448
▁continued	-2449
▁correctly	-2450
▁dangerous	-2451
▁decreased	-2452
▁depending	-2453
▁described	-2454
▁detecting	-2455
▁discussed	-2456
▁effective	-2457
▁estimates	-2458
▁formalize	-2459
▁identical	-2460
▁incorrect	-2461
▁increased	-2462
▁measuring	-2463
▁otherwise	-2464
▁predicted	-2465
▁prepended	-2466
▁reasoning	-2467
▁reinforce	-2468
▁schematic	-2469
▁sometimes	-2470
▁specifies	-2471
▁statement	-2472
▁summaries	-2473
information	-2474
▁EVALUATING	-2475
▁Finetuning	-2476
▁Generation	-2477
▁Preference	-2478
▁Pretrained	-2479
▁activities	-2480
▁additional	-2481
▁approaches	-2482
▁artificial	-2483
▁components	-2484
▁consistent	-2485
▁dependence	-2486
▁downstream	-2487
▁efficiency	-2488
▁empathetic	-2489
▁engagement	-2490
▁especially	-2491
▁evaluating	-2492
▁hypothesis	-2493
▁maximizing	-2494
▁predictive	-2495
▁principles	-2496
▁propaganda	-2497
▁properties	-2498
▁remarkable	-2499
▁subjective	-2500
▁suggesting	-2501
▁Conditional	-2502
▁considering	-2503
▁copyrighted	-2504
▁emotionally	-2505
▁feedforward	-2506
▁illustrates	-2507
▁multiplying	-2508
▁problematic	-2509
▁significant	-2510
▁sycophantic	-2511
▁Frankenstein	-2512
▁alternatives	-2513
▁implications	-2514
▁relationship	-2515
▁representing	-2516
▁subsequently	-2517
▁transformers	-2518
▁automatically	-2519
▁knowledgeable	-2520
▁backpropagated	-2521
▁distributional	-2522
▁encoderdecoder	-2523
▁microeconomics	-2524
▁backpropagation	-2525
▁characteristics	-2526
▁representations	-2527
!)	-2528
!=	-2529
))	-2530
)?	-2531
)’	-2532
+2	-2533
,9	-2534
-2	-2535
.”	-2536
/)	-2537
//	-2538
0)	-2539
01	-2540
18	-2541
1]	-2542
2)	-2543
25	-2544
2|	-2545
3)	-2546
3|	-2547
4,	-2548
4;	-2549
5)	-2550
50	-2551
6)	-2552
6,	-2553
7)	-2554
77	-2555
8;	-2556
9)	-2557
:)	-2558
:.	-2559
:2	-2560
?”	-2561
AQ	-2562
An	-2563
BQ	-2564
Bl	-2565
De	-2566
ET	-2567
EX	-2568
Gu	-2569
HE	-2570
Kh	-2571
Ki	-2572
Li	-2573
NT	-2574
Ne	-2575
OM	-2576
OR	-2577
OS	-2578
OT	-2579
PU	-2580
Py	-2581
SS	-2582
Si	-2583
St	-2584
To	-2585
Xu	-2586
Yn	-2587
Zh	-2588
aj	-2589
av	-2590
by	-2591
cl	-2592
cr	-2593
dd	-2594
dn	-2595
eg	-2596
ev	-2597
fs	-2598
gm	-2599
08	-2600
ht	-2601
ii	-2602
kl	-2603
ky	-2604
lo	-2605
ni	-2606
oS	-2607
pi	-2608
pp	-2609
ps	-2610
rX	-2611
rr	-2612
tx	-2613
ud	-2614
wN	-2615
wr	-2616
yn	-2617
ze	-2618
·+	-2619
ˆ,	-2620
’”	-2621
←1	-2622
▁>	-2623
▁`	-2624
▁{	-2625
▁×	-2626
▁∈	-2627
▁≤	-2628
+1.	-2629
+2.	-2630
..,	-2631
1].	-2632
2).	-2633
48)	-2634
://	-2635
ELM	-2636
ETY	-2637
Fig	-2638
Gao	-2639
Gur	-2640
How	-2641
Med	-2642
Min	-2643
Par	-2644
ROM	-2645
UES	-2646
aff	-2647
alc	-2648
ams	-2649
app	-2650
apy	-2651
arp	-2652
arw	-2653
ash	-2654
att	-2655
aut	-2656
bar	-2657
ber	-2658
bic	-2659
cer	-2660
ctr	-2661
ctu	-2662
cur	-2663
day	-2664
des	-2665
dge	-2666
edi	-2667
eds	-2668
ela	-2669
ell	-2670
erb	-2671
erg	-2672
erm	-2673
ern	-2674
ets	-2675
exa	-2676
fic	-2677
gan	-2678
gul	-2679
hor	-2680
hot	-2681
how	-2682
htt	-2683
ids	-2684
ift	-2685
ind	-2686
ini	-2687
ink	-2688
irc	-2689
isk	-2690
iso	-2691
ker	-2692
kew	-2693
lap	-2694
lls	-2695
mag	-2696
mem	-2697
mog	-2698
nam	-2699
0.1	-2700
LLM	-2701
Wol	-2702
agy	-2703
eps	-2704
nap	-2705
nee	-2706
odi	-2707
ols	-2708
ono	-2709
ons	-2710
ony	-2711
oog	-2712
opy	-2713
org	-2714
oto	-2715
our	-2716
pet	-2717
pus	-2718
que	-2719
ray	-2720
reh	-2721
rel	-2722
res	-2723
rix	-2724
ron	-2725
son	-2726
ssu	-2727
tit	-2728
tiv	-2729
top	-2730
tor	-2731
uct	-2732
udy	-2733
umn	-2734
une	-2735
ung	-2736
uns	-2737
ush	-2738
uut	-2739
vec	-2740
vid	-2741
vir	-2742
way	-2743
web	-2744
wed	-2745
wor	-2746
ype	-2747
|],	-2748
▁0,	-2749
▁14	-2750
▁19	-2751
▁24	-2752
▁28	-2753
▁30	-2754
▁40	-2755
▁5,	-2756
▁5.	-2757
▁75	-2758
▁76	-2759
▁<<	-2760
▁Ad	-2761
▁CE	-2762
▁CO	-2763
▁DS	-2764
▁Em	-2765
▁Ev	-2766
▁Ex	-2767
▁HI	-2768
▁Mc	-2769
▁OF	-2770
▁Tr	-2771
▁WI	-2772
▁aw	-2773
▁br	-2774
▁ca	-2775
▁ed	-2776
▁ha	-2777
▁ho	-2778
▁il	-2779
▁ip	-2780
▁ke	-2781
▁sl	-2782
▁ur	-2783
▁vs	-2784
▁yl	-2785
+1),	-2786
...,	-2787
50),	-2788
=0.1	-2789
=0.5	-2790
=100	-2791
BERT	-2792
Blod	-2793
Chop	-2794
FETY	-2795
OTES	-2796
Parr	-2797
Sand	-2798
What	-2799
PTA	-2800
lue	-2801
off	-2802
she	-2803
▁57	-2804
▁By	-2805
▁Do	-2806
Mass	-2807
aben	-2808
acil	-2809
acks	-2810
aden	-2811
aged	-2812
ager	-2813
agog	-2814
aign	-2815
aini	-2816
aken	-2817
alTo	-2818
alse	-2819
alue	-2820
anim	-2821
anks	-2822
arly	-2823
atha	-2824
ayar	-2825
care	-2826
caus	-2827
chec	-2828
cols	-2829
comp	-2830
coun	-2831
data	-2832
dget	-2833
duct	-2834
echn	-2835
eing	-2836
emon	-2837
enth	-2838
erms	-2839
erpl	-2840
ests	-2841
etes	-2842
eves	-2843
fair	-2844
ffie	-2845
fine	-2846
gett	-2847
ging	-2848
gmal	-2849
harm	-2850
head	-2851
ibly	-2852
ills	-2853
ilog	-2854
imin	-2855
inds	-2856
ines	-2857
inor	-2858
irms	-2859
ises	-2860
ityP	-2861
ival	-2862
izer	-2863
izes	-2864
kews	-2865
know	-2866
lace	-2867
left	-2868
lely	-2869
less	-2870
lest	-2871
lify	-2872
ling	-2873
mail	-2874
mann	-2875
mind	-2876
mine	-2877
ming	-2878
mody	-2879
monc	-2880
mong	-2881
more	-2882
much	-2883
ockl	-2884
oger	-2885
olma	-2886
oney	-2887
only	-2888
ooth	-2889
ords	-2890
orly	-2891
orts	-2892
osen	-2893
oser	-2894
ouse	-2895
owed	-2896
pens	-2897
pret	-2898
rXiv	-2899
(1)	-2900
=10	-2901
OND	-2902
PUs	-2903
rub	-2904
−1)	-2905
▁4.	-2906
▁42	-2907
▁GB	-2908
Neff	-2909
indi	-2910
lete	-2911
oolf	-2912
racy	-2913
rams	-2914
real	-2915
repe	-2916
requ	-2917
rist	-2918
rows	-2919
sing	-2920
soft	-2921
stim	-2922
such	-2923
sure	-2924
tect	-2925
tens	-2926
turn	-2927
udes	-2928
ulpt	-2929
unch	-2930
unds	-2931
ured	-2932
used	-2933
user	-2934
usty	-2935
utes	-2936
vent	-2937
vern	-2938
vert	-2939
well	-2940
ympt	-2941
▁+··	-2942
▁.05	-2943
▁.22	-2944
▁.23	-2945
▁.24	-2946
▁.26	-2947
▁.27	-2948
▁.32	-2949
▁.45	-2950
▁0.5	-2951
▁1-2	-2952
▁30.	-2953
▁7.9	-2954
▁??.	-2955
▁Ara	-2956
▁Big	-2957
▁Cho	-2958
▁Col	-2959
▁Com	-2960
▁EOS	-2961
▁ETH	-2962
▁Err	-2963
▁FAQ	-2964
▁GPT	-2965
▁Gao	-2966
▁INT	-2967
▁IRB	-2968
▁ISS	-2969
▁Int	-2970
▁Now	-2971
▁Pav	-2972
▁Pub	-2973
▁Sag	-2974
▁Set	-2975
▁THE	-2976
▁Vir	-2977
▁aab	-2978
▁ach	-2979
▁ago	-2980
▁ant	-2981
▁bor	-2982
▁bro	-2983
▁cas	-2984
▁cur	-2985
▁del	-2986
▁dev	-2987
▁die	-2988
▁fel	-2989
▁fix	-2990
▁flu	-2991
▁fri	-2992
▁gen	-2993
▁hap	-2994
▁his	-2995
▁hit	-2996
▁hub	-2997
▁ign	-2998
▁kWh	-2999
▁-1	-3000
▁60	-3001
Nade	-3002
STOR	-3003
bots	-3004
down	-3005
gram	-3006
lick	-3007
what	-3008
▁(0,	-3009
▁.77	-3010
▁12.	-3011
▁156	-3012
▁25,	-3013
▁258	-3014
▁259	-3015
▁30,	-3016
▁Dyn	-3017
▁law	-3018
▁led	-3019
▁lit	-3020
▁loc	-3021
▁mag	-3022
▁map	-3023
▁mas	-3024
▁nuc	-3025
▁ont	-3026
▁pap	-3027
▁ped	-3028
▁pun	-3029
▁sen	-3030
▁she	-3031
▁sil	-3032
▁squ	-3033
▁suc	-3034
▁sup	-3035
▁tre	-3036
▁try	-3037
▁unc	-3038
▁vis	-3039
▁yet	-3040
▁yth	-3041
▁−2,	-3042
1:2).	-3043
BERTA	-3044
Dinan	-3045
Gurur	-3046
Liang	-3047
PTING	-3048
Rawls	-3049
Strub	-3050
Trans	-3051
ained	-3052
ances	-3053
angan	-3054
annon	-3055
antly	-3056
apons	-3057
apped	-3058
arget	-3059
aries	-3060
arlic	-3061
artic	-3062
ashim	-3063
astic	-3064
attab	-3065
ature	-3066
aveat	-3067
batch	-3068
being	-3069
chmar	-3070
ciety	-3071
ctors	-3072
dates	-3073
dered	-3074
eanwh	-3075
elike	-3076
ended	-3077
endry	-3078
erate	-3079
gener	-3080
ginia	-3081
human	-3082
ichel	-3083
icine	-3084
ience	-3085
igned	-3086
ilies	-3087
iling	-3088
iller	-3089
inely	-3090
inese	-3091
inger	-3092
input	-3093
ision	-3094
itask	-3095
itted	-3096
jects	-3097
legal	-3098
lfare	-3099
24)	-3100
96)	-3101
IRB	-3102
You	-3103
Zao	-3104
ezz	-3105
▁Xu	-3106
,000	-3107
:”).	-3108
Bick	-3109
Isch	-3110
Sold	-3111
bezz	-3112
driv	-3113
hape	-3114
▁11,	-3115
▁825	-3116
▁Hof	-3117
▁Leg	-3118
▁−1,	-3119
anner	-3120
ezzle	-3121
mains	-3122
means	-3123
ments	-3124
mmary	-3125
mptom	-3126
night	-3127
nique	-3128
occur	-3129
odied	-3130
okens	-3131
olies	-3132
orate	-3133
orpus	-3134
orted	-3135
orter	-3136
ossal	-3137
osure	-3138
pages	-3139
pects	-3140
pense	-3141
place	-3142
ridge	-3143
roact	-3144
shelf	-3145
shots	-3146
sider	-3147
since	-3148
state	-3149
sting	-3150
tempt	-3151
thing	-3152
token	-3153
train	-3154
uched	-3155
uitry	-3156
uting	-3157
vered	-3158
▁.95,	-3159
▁100?	-3160
▁15,9	-3161
▁1700	-3162
▁1818	-3163
▁2001	-3164
▁2016	-3165
▁7.1,	-3166
▁7.4,	-3167
▁7.7.	-3168
▁??),	-3169
▁Alas	-3170
▁Carl	-3171
▁Each	-3172
▁Goog	-3173
▁Hawa	-3174
▁Imag	-3175
▁Jura	-3176
▁Like	-3177
▁McGu	-3178
▁Mist	-3179
▁Mult	-3180
▁Nass	-3181
▁Newh	-3182
▁Open	-3183
▁Over	-3184
▁Ovid	-3185
▁Rese	-3186
▁Rich	-3187
▁Room	-3188
▁Roth	-3189
▁Serv	-3190
▁Team	-3191
▁Text	-3192
▁Then	-3193
▁True	-3194
▁Turn	-3195
▁With	-3196
▁Your	-3197
▁able	-3198
▁adap	-3199
medi	-3200
ruit	-3201
▁9.)	-3202
▁Liu	-3203
▁[1×	-3204
Zhang	-3205
world	-3206
▁.59.	-3207
▁Copy	-3208
▁WITH	-3209
▁adds	-3210
▁alia	-3211
▁base	-3212
▁beam	-3213
▁bias	-3214
▁boil	-3215
▁bulk	-3216
▁calc	-3217
▁camp	-3218
▁cent	-3219
▁cert	-3220
▁chem	-3221
▁cogn	-3222
▁come	-3223
▁deal	-3224
▁dete	-3225
▁down	-3226
▁econ	-3227
▁educ	-3228
▁emul	-3229
▁ency	-3230
▁ends	-3231
▁exce	-3232
▁fake	-3233
▁fant	-3234
▁fast	-3235
▁file	-3236
▁flag	-3237
▁flex	-3238
▁gave	-3239
▁gend	-3240
▁goal	-3241
▁goes	-3242
▁gold	-3243
▁hard	-3244
▁hate	-3245
▁isol	-3246
▁knee	-3247
▁last	-3248
▁late	-3249
▁leak	-3250
▁lens	-3251
▁lies	-3252
▁life	-3253
▁list	-3254
▁live	-3255
▁made	-3256
▁male	-3257
▁mess	-3258
▁misc	-3259
▁must	-3260
▁name	-3261
▁news	-3262
▁norm	-3263
▁onto	-3264
▁pain	-3265
▁past	-3266
▁pers	-3267
▁pick	-3268
▁plus	-3269
▁pole	-3270
▁pose	-3271
▁push	-3272
▁race	-3273
▁real	-3274
▁requ	-3275
▁rewr	-3276
▁root	-3277
▁said	-3278
▁save	-3279
▁says	-3280
▁seek	-3281
▁snap	-3282
▁soph	-3283
▁stem	-3284
▁subn	-3285
▁tail	-3286
▁tech	-3287
▁teen	-3288
▁temp	-3289
▁tend	-3290
▁tens	-3291
▁thor	-3292
▁thus	-3293
▁vary	-3294
▁vuut	-3295
▁warm	-3296
▁went	-3297
▁yall	-3298
▁yand	-3299
)’:	-3300
EXT	-3301
ajh	-3302
txt	-3303
▁!=	-3304
?”),	-3305
Siri	-3306
Wolf	-3307
crit	-3308
even	-3309
fsky	-3310
oSet	-3311
’”).	-3312
▁26,	-3313
▁App	-3314
▁BBQ	-3315
▁odd	-3316
Kiela	-3317
affel	-3318
aigns	-3319
arwin	-3320
heets	-3321
https	-3322
ronic	-3323
ssues	-3324
viron	-3325
▁...,	-3326
▁DSPy	-3327
▁HELM	-3328
▁Nagy	-3329
▁Opus	-3330
▁PROM	-3331
▁Skew	-3332
▁TEXT	-3333
▁blue	-3334
▁circ	-3335
▁didn	-3336
▁gift	-3337
▁risk	-3338
▁term	-3339
▁type	-3340
▁yfor	-3341
2,...,	-3342
Gehman	-3343
Ischen	-3344
Person	-3345
UITION	-3346
abench	-3347
ablish	-3348
acilit	-3349
acking	-3350
adened	-3351
agraph	-3352
akenly	-3353
always	-3354
ancial	-3355
andard	-3356
angelo	-3357
answer	-3358
aphors	-3359
assign	-3360
atical	-3361
better	-3362
causal	-3363
ceding	-3364
choose	-3365
cloped	-3366
ctrine	-3367
dering	-3368
destru	-3369
either	-3370
entist	-3371
ersity	-3372
essams	-3373
fairly	-3374
ficult	-3375
filter	-3376
formed	-3377
icious	-3378
ilarly	-3379
illion	-3380
irical	-3381
linear	-3382
marize	-3383
member	-3384
mental	-3385
minate	-3386
namics	-3387
normal	-3388
onouns	-3389
ontext	-3390
opment	-3391
piracy	-3392
plicit	-3393
profit	-3394
rather	-3395
respon	-3396
rought	-3397
served	-3398
source	-3399
known	-3400
▁COND	-3401
▁GPUs	-3402
Nadeem	-3403
driven	-3404
itudes	-3405
oothly	-3406
ristie	-3407
strict	-3408
struct	-3409
threat	-3410
titles	-3411
tivate	-3412
tocols	-3413
ualize	-3414
udying	-3415
ulated	-3416
unding	-3417
urring	-3418
usions	-3419
ymptot	-3420
▁(7.1)	-3421
▁(7.2)	-3422
▁(7.3)	-3423
▁(7.4)	-3424
▁(7.5)	-3425
▁(7.6)	-3426
▁(7.7)	-3427
▁(7.8)	-3428
▁(7.9)	-3429
▁+···+	-3430
▁2001;	-3431
▁2018)	-3432
▁2018;	-3433
▁2022)	-3434
▁2022;	-3435
▁2024)	-3436
▁7.1):	-3437
▁7.10,	-3438
▁7.12:	-3439
▁7.4.1	-3440
▁7.4.2	-3441
▁7.4.3	-3442
▁7.5).	-3443
▁7.5.1	-3444
▁7.5.3	-3445
▁7.6.1	-3446
▁7.6.2	-3447
▁7.6.3	-3448
▁Alexa	-3449
▁ArXiv	-3450
▁Clean	-3451
▁Crawl	-3452
▁Demon	-3453
▁Dinan	-3454
▁Dolma	-3455
▁Elect	-3456
▁Error	-3457
▁Estim	-3458
▁Evalu	-3459
▁First	-3460
▁Hindi	-3461
▁Ident	-3462
▁Input	-3463
▁LSTMs	-3464
▁Label	-3465
▁Liang	-3466
▁Micro	-3467
▁Minim	-3468
▁Moses	-3469
▁NOTES	-3470
▁Other	-3471
▁Rawls	-3472
▁Roger	-3473
▁Sheng	-3474
▁Start	-3475
▁Stere	-3476
▁Techn	-3477
▁Terms	-3478
▁Think	-3479
▁Tuned	-3480
▁USPTA	-3481
▁Under	-3482
▁Users	-3483
▁Using	-3484
▁Value	-3485
▁While	-3486
▁Woolf	-3487
▁added	-3488
▁ahead	-3489
▁alloc	-3490
▁along	-3491
▁among	-3492
▁arena	-3493
▁asked	-3494
▁avail	-3495
▁avoid	-3496
▁aware	-3497
▁began	-3498
▁blind	-3499
▁bring	-3500
▁built	-3501
▁cards	-3502
▁cares	-3503
▁chose	-3504
▁clean	-3505
▁coded	-3506
▁colle	-3507
▁color	-3508
▁crews	-3509
▁death	-3510
▁demog	-3511
▁deter	-3512
▁dimin	-3513
▁doing	-3514
▁early	-3515
▁elect	-3516
▁email	-3517
▁emerg	-3518
▁entry	-3519
▁equal	-3520
▁exist	-3521
▁false	-3522
▁fills	-3523
▁final	-3524
▁firms	-3525
▁fixed	-3526
▁forms	-3527
▁fraud	-3528
▁frequ	-3529
▁fully	-3530
▁going	-3531
▁graph	-3532
▁great	-3533
▁greed	-3534
▁hence	-3535
▁hinds	-3536
▁hours	-3537
▁ideas	-3538
▁items	-3539
▁ities	-3540
▁keeps	-3541
▁kilog	-3542
▁knows	-3543
▁layer	-3544
▁lists	-3545
▁lives	-3546
▁logYn	-3547
▁lunch	-3548
▁media	-3549
▁metat	-3550
▁minor	-3551
▁mixed	-3552
▁modal	-3553
▁money	-3554
▁occur	-3555
▁parts	-3556
▁place	-3557
▁plays	-3558
▁pling	-3559
▁poses	-3560
▁prone	-3561
▁prose	-3562
▁proxy	-3563
▁radic	-3564
▁range	-3565
▁reach	-3566
▁refer	-3567
▁regul	-3568
▁repet	-3569
▁revol	-3570
▁rusty	-3571
▁scope	-3572
▁sense	-3573
▁sharp	-3574
▁sides	-3575
▁sizes	-3576
▁skews	-3577
▁slurs	-3578
▁sorts	-3579
▁store	-3580
▁story	-3581
▁stray	-3582
▁tells	-3583
▁tence	-3584
▁tends	-3585
▁tense	-3586
▁tests	-3587
▁third	-3588
▁times	-3589
▁today	-3590
▁tools	-3591
▁topic	-3592
▁treat	-3593
▁twice	-3594
▁urges	-3595
▁utter	-3596
▁views	-3597
▁wants	-3598
▁weird	-3599
▁whole	-3600
▁works	-3601
▁worry	-3602
▁worse	-3603
▁worst	-3604
▁write	-3605
▁wrong	-3606
▁ylong	-3607
▁young	-3608
1:2)...	-3609
Decoder	-3610
ITIONAL	-3611
Khattab	-3612
Massive	-3613
Parrish	-3614
Sanders	-3615
alToxic	-3616
animate	-3617
asoning	-3618
ayarajh	-3619
cessful	-3620
checker	-3621
chmarks	-3622
commonc	-3623
counter	-3624
crawled	-3625
emotion	-3626
entions	-3627
erplate	-3628
estions	-3629
etworks	-3630
fiction	-3631
gmalion	-3632
ifiable	-3633
isocial	-3634
ivalent	-3635
lifying	-3636
mercial	-3637
natural	-3638
ocklist	-3639
ologist	-3640
product	-3641
quality	-3642
raphics	-3643
related	-3644
serving	-3645
sources	-3646
toright	-3647
uctured	-3648
ulpture	-3649
usually	-3650
versary	-3651
webtext	-3652
whether	-3653
▁(0,1].	-3654
▁(1948)	-3655
▁(1996)	-3656
▁(2024)	-3657
▁(7.10)	-3658
▁(7.11)	-3659
▁15,908	-3660
▁2016).	-3661
▁2019).	-3662
▁2019)—	-3663
▁2021),	-3664
▁2022).	-3665
▁2023);	-3666
▁2025):	-3667
▁30,000	-3668
▁Adding	-3669
▁Agatha	-3670
▁Arabic	-3671
▁Boards	-3672
▁Common	-3673
▁Corpus	-3674
▁Darwin	-3675
▁During	-3676
▁Embezz	-3677
▁Finger	-3678
▁Gehman	-3679
▁Google	-3680
▁HISTOR	-3681
▁Hashim	-3682
▁Hawaii	-3683
▁Hendry	-3684
▁ISSUES	-3685
▁Indeed	-3686
▁Issues	-3687
▁Legend	-3688
▁Losses	-3689
▁Masked	-3690
▁Meanwh	-3691
▁Michel	-3692
▁Miller	-3693
▁Moving	-3694
▁Normal	-3695
▁Notice	-3696
▁Owners	-3697
▁Prompt	-3698
▁PubMed	-3699
▁Raffel	-3700
▁Reeves	-3701
▁Review	-3702
▁SAFETY	-3703
▁Sagawa	-3704
▁Seeing	-3705
▁States	-3706
▁Tuning	-3707
▁United	-3708
▁Webson	-3709
▁action	-3710
▁active	-3711
▁actors	-3712
▁agents	-3713
▁allows	-3714
▁appear	-3715
▁arises	-3716
▁arrows	-3717
▁author	-3718
▁avoids	-3719
▁biased	-3720
▁bigram	-3721
▁boring	-3722
▁budget	-3723
▁casual	-3724
▁caused	-3725
▁causes	-3726
▁caveat	-3727
▁chosen	-3728
▁column	-3729
▁crease	-3730
▁decade	-3731
▁define	-3732
▁demean	-3733
▁divide	-3734
▁ensure	-3735
▁errors	-3736
▁events	-3737
▁except	-3738
▁excess	-3739
▁expand	-3740
▁expect	-3741
▁family	-3742
▁felony	-3743
▁finely	-3744
▁flight	-3745
▁fluent	-3746
▁gained	-3747
▁garlic	-3748
▁govern	-3749
▁having	-3750
▁hubris	-3751
▁ignore	-3752
▁images	-3753
▁immedi	-3754
▁incomp	-3755
▁incorp	-3756
▁ipants	-3757
▁labels	-3758
▁looser	-3759
▁mainly	-3760
▁manner	-3761
▁market	-3762
▁matrix	-3763
▁matter	-3764
▁modify	-3765
▁obsequ	-3766
▁occurs	-3767
▁online	-3768
▁papers	-3769
▁patent	-3770
▁poorly	-3771
▁punctu	-3772
▁recent	-3773
▁relies	-3774
▁remind	-3775
▁repeat	-3776
▁replic	-3777
▁review	-3778
▁reward	-3779
▁robots	-3780
▁saying	-3781
▁search	-3782
▁seemed	-3783
▁signal	-3784
▁social	-3785
▁solely	-3786
▁spoken	-3787
▁square	-3788
▁statue	-3789
▁status	-3790
▁tapped	-3791
▁target	-3792
▁theory	-3793
▁topics	-3794
▁unless	-3795
▁valued	-3796
▁vastly	-3797
▁viewed	-3798
▁within	-3799
American	-3800
Bickmore	-3801
Blodgett	-3802
Friedman	-3803
Personal	-3804
Soldaini	-3805
Strubell	-3806
accepted	-3807
agogical	-3808
articles	-3809
clopedic	-3810
courages	-3811
critical	-3812
decoding	-3813
deduplic	-3814
enormous	-3815
enthesis	-3816
erboards	-3817
filtered	-3818
generate	-3819
gression	-3820
ilingual	-3821
inations	-3822
iousness	-3823
mentally	-3824
mination	-3825
pectives	-3826
probable	-3827
probably	-3828
rejected	-3829
repeated	-3830
roactive	-3831
sentence	-3832
specific	-3833
structed	-3834
▁(1950),	-3835
▁(2020).	-3836
▁100,000	-3837
▁Aligned	-3838
▁Carlini	-3839
▁Chinese	-3840
▁Choices	-3841
▁Compute	-3842
▁Correct	-3843
▁Crawled	-3844
▁Decoder	-3845
▁ETHICAL	-3846
▁Ethical	-3847
▁Example	-3848
▁Filters	-3849
▁Finding	-3850
▁Hofmann	-3851
▁However	-3852
▁Imagine	-3853
▁Instead	-3854
▁Mistral	-3855
▁Pavlick	-3856
▁Perhaps	-3857
▁Prompts	-3858
▁Reading	-3859
▁Richard	-3860
▁RoBERTA	-3861
▁Service	-3862
▁Setting	-3863
▁Shannon	-3864
▁Summary	-3865
▁Turning	-3866
▁Various	-3867
▁abounds	-3868
▁abusive	-3869
▁achieve	-3870
▁acquire	-3871
▁adjusts	-3872
▁advance	-3873
▁against	-3874
▁analyze	-3875
▁applied	-3876
▁argmaxw	-3877
▁aspects	-3878
▁attacks	-3879
▁attempt	-3880
▁billion	-3881
▁brought	-3882
▁caution	-3883
▁central	-3884
▁certain	-3885
▁chances	-3886
▁classes	-3887
▁clearly	-3888
▁closely	-3889
▁compreh	-3890
▁concern	-3891
▁concise	-3892
▁convert	-3893
▁covered	-3894
▁crawled	-3895
▁created	-3896
▁curated	-3897
▁defined	-3898
▁defines	-3899
▁disprop	-3900
▁domains	-3901
▁emitted	-3902
▁encoura	-3903
▁endowed	-3904
▁enforce	-3905
▁entries	-3906
▁environ	-3907
▁equally	-3908
▁exceeds	-3909
▁expense	-3910
▁explain	-3911
▁exposed	-3912
▁extract	-3913
▁facilit	-3914
▁factual	-3915
▁feature	-3916
▁feeding	-3917
▁fiction	-3918
▁flatten	-3919
▁focused	-3920
▁follows	-3921
▁friends	-3922
▁genders	-3923
▁generic	-3924
▁handful	-3925
▁happens	-3926
▁harming	-3927
▁highway	-3928
▁history	-3929
▁illegal	-3930
▁involve	-3931
▁iterate	-3932
▁knowing	-3933
▁largest	-3934
▁leading	-3935
▁learner	-3936
▁lengths	-3937
▁locally	-3938
▁looking	-3939
▁loosely	-3940
▁masking	-3941
▁minimal	-3942
▁nuclear	-3943
▁objects	-3944
▁offline	-3945
▁optimal	-3946
▁options	-3947
▁overall	-3948
▁overfit	-3949
▁overlap	-3950
▁painted	-3951
▁parsing	-3952
▁passing	-3953
▁patents	-3954
▁perhaps	-3955
▁perplex	-3956
▁pointed	-3957
▁portion	-3958
▁posting	-3959
▁predate	-3960
▁primary	-3961
▁priming	-3962
▁product	-3963
▁protect	-3964
▁proxies	-3965
▁queries	-3966
▁reading	-3967
▁reasons	-3968
▁records	-3969
▁recruit	-3970
▁reduces	-3971
▁remains	-3972
▁replace	-3973
▁reports	-3974
▁reshape	-3975
▁respond	-3976
▁returns	-3977
▁rewrite	-3978
▁rolling	-3979
▁samples	-3980
▁section	-3981
▁shorter	-3982
▁shouldn	-3983
▁society	-3984
▁stating	-3985
▁stories	-3986
▁summary	-3987
▁support	-3988
▁symptom	-3989
▁textual	-3990
▁therapy	-3991
▁touched	-3992
▁trigram	-3993
▁typical	-3994
▁unclear	-3995
▁unigram	-3996
▁updates	-3997
▁utility	-3998
▁violate	-3999
▁weapons	-4000
▁welfare	-4001
▁ythanks	-4002
Anthropic	-4003
Translate	-4004
answering	-4005
assigning	-4006
carefully	-4007
emotional	-4008
ification	-4009
including	-4010
isticated	-4011
specifies	-4012
strations	-4013
▁Applying	-4014
▁Christie	-4015
▁Colossal	-4016
▁Consider	-4017
▁Electric	-4018
▁Friedman	-4019
▁Jurafsky	-4020
▁McGuffie	-4021
▁Negative	-4022
▁Newhouse	-4023
▁Positive	-4024
▁Rawlsian	-4025
▁Recently	-4026
▁Research	-4027
▁Rogerian	-4028
▁Rothwell	-4029
▁Virginia	-4030
▁accepted	-4031
▁adapting	-4032
▁addition	-4033
▁adjusted	-4034
▁agreeing	-4035
▁anything	-4036
▁asymptot	-4037
▁averaged	-4038
▁builders	-4039
▁building	-4040
▁carrying	-4041
▁chatbots	-4042
▁chemical	-4043
▁cleaning	-4044
▁coherent	-4045
▁commands	-4046
▁commonly	-4047
▁competes	-4048
▁composed	-4049
▁computes	-4050
▁contains	-4051
▁crawlers	-4052
▁crawling	-4053
▁decision	-4054
▁deduplic	-4055
▁deployed	-4056
▁determin	-4057
▁disclose	-4058
▁doctrine	-4059
▁document	-4060
▁embezzle	-4061
▁embodied	-4062
▁emulates	-4063
▁encoding	-4064
▁equation	-4065
▁explicit	-4066
▁families	-4067
▁finetune	-4068
▁flattery	-4069
▁flexible	-4070
▁focusing	-4071
▁followed	-4072
▁fraction	-4073
▁frequent	-4074
▁gendered	-4075
▁greedily	-4076
▁humanity	-4077
▁indicate	-4078
▁informed	-4079
▁inherent	-4080
▁instruct	-4081
▁internal	-4082
▁internet	-4083
▁involves	-4084
▁lifelike	-4085
▁logistic	-4086
▁machines	-4087
▁markdown	-4088
▁matrices	-4089
▁meanings	-4090
▁medicine	-4091
▁messages	-4092
▁minority	-4093
▁motivate	-4094
▁normally	-4095
▁numerous	-4096
▁observed	-4097
▁ordering	-4098
▁paradigm	-4099
▁phishing	-4100
▁possibly	-4101
▁predates	-4102
▁pretrain	-4103
▁probably	-4104
▁producer	-4105
▁produces	-4106
▁pronouns	-4107
▁proposes	-4108
▁provided	-4109
▁provides	-4110
▁publicly	-4111
▁reinvent	-4112
▁rejected	-4113
▁released	-4114
▁remember	-4115
▁removing	-4116
▁requests	-4117
▁restrict	-4118
▁sensible	-4119
▁silently	-4120
▁simplest	-4121
▁simulate	-4122
▁smoothly	-4123
▁socially	-4124
▁somewhat	-4125
▁spelling	-4126
▁standard	-4127
▁strongly	-4128
▁studying	-4129
▁teenager	-4130
▁template	-4131
▁theories	-4132
▁thermody	-4133
▁thorough	-4134
▁treating	-4135
▁trillion	-4136
▁underbar	-4137
▁unfairly	-4138
▁verbally	-4139
▁versions	-4140
▁webpages	-4141
Gururangan	-4142
determined	-4143
ityPrompts	-4144
normalized	-4145
responding	-4146
stitutions	-4147
▁Alignment	-4148
▁Answering	-4149
▁Anthropic	-4150
▁Computing	-4151
▁Copyright	-4152
▁Dynabench	-4153
▁Estimates	-4154
▁Filtering	-4155
▁Hashimoto	-4156
▁Henderson	-4157
▁Humanists	-4158
▁INTUITION	-4159
▁Including	-4160
▁Intuition	-4161
▁Meanwhile	-4162
▁Microsoft	-4163
▁Multitask	-4164
▁PROMPTING	-4165
▁Prompting	-4166
▁Pygmalion	-4167
▁RealToxic	-4168
▁Reasoning	-4169
▁Selfridge	-4170
▁StereoSet	-4171
▁Summarize	-4172
▁Translate	-4173
▁addressed	-4174
▁adversary	-4175
▁allowable	-4176
▁appearing	-4177
▁associate	-4178
▁attacking	-4179
▁attention	-4180
▁attitudes	-4181
▁available	-4182
▁beginning	-4183
▁blindness	-4184
▁blocklist	-4185
▁broadened	-4186
▁calculate	-4187
▁campaigns	-4188
▁circuitry	-4189
▁cognitive	-4190
▁commanded	-4191
▁computers	-4192
▁decreases	-4193
▁delusions	-4194
▁deploying	-4195
▁describes	-4196
▁detection	-4197
▁determine	-4198
▁developed	-4199
▁difficult	-4200
▁distorted	-4201
▁diversity	-4202
▁economics	-4203
▁education	-4204
▁emergency	-4205
▁empirical	-4206
▁encounter	-4207
▁establish	-4208
▁estimated	-4209
▁evaluated	-4210
▁extension	-4211
▁extremist	-4212
▁factually	-4213
▁fantastic	-4214
▁financial	-4215
▁finetuned	-4216
▁finishing	-4217
▁grounding	-4218
▁hindsight	-4219
▁inanimate	-4220
▁incontext	-4221
▁indicated	-4222
▁inference	-4223
▁influence	-4224
▁interpret	-4225
▁isolation	-4226
▁kilograms	-4227
▁magically	-4228
▁malicious	-4229
▁materials	-4230
▁maximally	-4231
▁mechanism	-4232
▁mentioned	-4233
▁metaphors	-4234
▁movements	-4235
▁nonprofit	-4236
▁obviously	-4237
▁occurring	-4238
▁offensive	-4239
▁optimized	-4240
▁optimizer	-4241
▁ourselves	-4242
▁overnight	-4243
▁overstate	-4244
▁paradigms	-4245
▁paragraph	-4246
▁practices	-4247
▁preceding	-4248
▁processed	-4249
▁professor	-4250
▁protocols	-4251
▁purposely	-4252
▁recurrent	-4253
▁reference	-4254
▁regulates	-4255
▁resources	-4256
▁responded	-4257
▁scientist	-4258
▁sculpture	-4259
▁sentience	-4260
▁similarly	-4261
▁simulated	-4262
▁situation	-4263
▁snapshots	-4264
▁specially	-4265
▁subtitles	-4266
▁surprised	-4267
▁technique	-4268
▁therefore	-4269
▁tokenizer	-4270
▁translate	-4271
▁utterance	-4272
▁violation	-4273
▁visualize	-4274
commoncrawl	-4275
destructive	-4276
linearities	-4277
ortionately	-4278
stitutional	-4279
supervision	-4280
threatening	-4281
▁Downstream	-4282
▁Embezzling	-4283
▁Ethayarajh	-4284
▁Evaluating	-4285
▁HISTORICAL	-4286
▁Minimizing	-4287
▁allocative	-4288
▁amplifying	-4289
▁antisocial	-4290
▁associated	-4291
▁benchmarks	-4292
▁biological	-4293
▁commercial	-4294
▁completely	-4295
▁completion	-4296
▁consisting	-4297
▁conspiracy	-4298
▁constantly	-4299
▁constitute	-4300
▁contextual	-4301
▁contrasted	-4302
▁correcting	-4303
▁datasheets	-4304
▁determined	-4305
▁difference	-4306
▁disclosure	-4307
▁discussion	-4308
▁electronic	-4309
▁elementary	-4310
▁equivalent	-4311
▁exhibiting	-4312
▁extremists	-4313
▁factuality	-4314
▁flattering	-4315
▁generality	-4316
▁generalize	-4317
▁government	-4318
▁historical	-4319
▁illustrate	-4320
▁incomplete	-4321
▁indicating	-4322
▁influences	-4323
▁intentions	-4324
▁interested	-4325
▁introduces	-4326
▁literature	-4327
▁mechanisms	-4328
▁mentioning	-4329
▁metatokens	-4330
▁minimizing	-4331
▁mistakenly	-4332
▁mitigating	-4333
▁mitigation	-4334
▁modalities	-4335
▁monopolies	-4336
▁multiplied	-4337
▁preserving	-4338
▁processing	-4339
▁production	-4340
▁productive	-4341
▁professors	-4342
▁radicalize	-4343
▁regression	-4344
▁remarkably	-4345
▁repetitive	-4346
▁replicable	-4347
▁represents	-4348
▁responding	-4349
▁revolution	-4350
▁structured	-4351
▁successful	-4352
▁sufficient	-4353
▁surprising	-4354
▁surrounded	-4355
▁tokenizers	-4356
▁violations	-4357
deduplicated	-4358
▁CONDITIONAL	-4359
▁Information	-4360
▁Technically	-4361
▁activations	-4362
▁alternative	-4363
▁application	-4364
▁appropriate	-4365
▁association	-4366
▁boilerplate	-4367
▁collections	-4368
▁composition	-4369
▁consequence	-4370
▁constitutes	-4371
▁constrained	-4372
▁constructed	-4373
▁continually	-4374
▁demonstrate	-4375
▁development	-4376
▁differences	-4377
▁diminishing	-4378
▁discourages	-4379
▁encouraging	-4380
▁excessively	-4381
▁experiments	-4382
▁explanation	-4383
▁generations	-4384
▁grammatical	-4385
▁immediately	-4386
▁incorporate	-4387
▁indications	-4388
▁introducing	-4389
▁offensively	-4390
▁ontological	-4391
▁parenthesis	-4392
▁pedagogical	-4393
▁punctuation	-4394
▁represented	-4395
▁researchers	-4396
▁retroactive	-4397
▁specialized	-4398
▁subnetworks	-4399
▁suggestions	-4400
▁supervision	-4401
▁surrounding	-4402
▁translating	-4403
essamsampling	-4404
▁Identifiable	-4405
▁Michelangelo	-4406
▁applications	-4407
▁associations	-4408
▁conditioning	-4409
▁demographics	-4410
▁discriminate	-4411
▁encyclopedic	-4412
▁experimental	-4413
▁explanations	-4414
▁facilitating	-4415
▁historically	-4416
▁institutions	-4417
▁interactions	-4418
▁leaderboards	-4419
▁multilingual	-4420
▁perplexities	-4421
▁perspectives	-4422
▁prespecifies	-4423
▁psychologist	-4424
▁restrictions	-4425
▁specifically	-4426
▁sufficiently	-4427
▁tokenization	-4428
▁translations	-4429
▁vocabularies	-4430
autoregressive	-4431
▁Institutional	-4432
▁Understanding	-4433
▁appropriately	-4434
▁comprehension	-4435
▁conditionally	-4436
▁continuations	-4437
▁corresponding	-4438
▁deduplication	-4439
▁demonstrating	-4440
▁deterministic	-4441
▁environmental	-4442
▁grammatically	-4443
▁incrementally	-4444
▁interactional	-4445
▁probabilistic	-4446
▁psychological	-4447
▁reinforcement	-4448
▁sophisticated	-4449
▁strengthening	-4450
▁Demonstrations	-4451
▁asymptotically	-4452
▁classification	-4453
▁discrimination	-4454
▁disinformation	-4455
▁hallucinations	-4456
▁implementation	-4457
▁lowprobability	-4458
▁misinformation	-4459
▁multiplechoice	-4460
▁obsequiousness	-4461
▁thermodynamics	-4462
▁transformative	-4463
▁highprobability	-4464
(0	-4465
(2	-4466
);	-4467
,0	-4468
-0	-4469
.0	-4470
.4	-4471
.5	-4472
.6	-4473
.7	-4474
.8	-4475
.9	-4476
02	-4477
1-	-4478
1.	-4479
10	-4480
11	-4481
16	-4482
17	-4483
2-	-4484
21	-4485
22	-4486
23	-4487
2;	-4488
3.	-4489
30	-4490
33	-4491
44	-4492
45	-4493
5.	-4494
56	-4495
6.	-4496
70	-4497
75	-4498
76	-4499
2.	-4500
81	-4501
9.	-4502
90	-4503
<<	-4504
?)	-4505
?.	-4506
??	-4507
AG	-4508
AM	-4509
AN	-4510
AP	-4511
AR	-4512
AT	-4513
Af	-4514
Ag	-4515
Ar	-4516
As	-4517
At	-4518
BB	-4519
BE	-4520
Be	-4521
Bu	-4522
By	-4523
CH	-4524
Ca	-4525
Cl	-4526
Co	-4527
Cr	-4528
DI	-4529
DS	-4530
Da	-4531
Di	-4532
EL	-4533
EN	-4534
EO	-4535
Em	-4536
En	-4537
Eq	-4538
Et	-4539
FA	-4540
FE	-4541
Fi	-4542
Fo	-4543
Fr	-4544
GB	-4545
GP	-4546
GU	-4547
Gr	-4548
Ha	-4549
Ho	-4550
IN	-4551
IO	-4552
IR	-4553
Id	-4554
If	-4555
In	-4556
Is	-4557
It	-4558
Ja	-4559
LA	-4560
LC	-4561
LI	-4562
LL	-4563
La	-4564
Le	-4565
Lo	-4566
ML	-4567
MM	-4568
MO	-4569
Ma	-4570
Mc	-4571
Mi	-4572
Mo	-4573
Ms	-4574
NE	-4575
NI	-4576
NL	-4577
No	-4578
OD	-4579
OF	-4580
On	-4581
Op	-4582
Or	-4583
Ow	-4584
Pa	-4585
Pi	-4586
Pr	-4587
Pu	-4588
Qu	-4589
RA	-4590
RG	-4591
RI	-4592
Ra	-4593
Re	-4594
SF	-4595
SU	-4596
Sa	-4597
Se	-4598
So	-4599
+.	-4600
07	-4601
0;	-4602
0?	-4603
12	-4604
13	-4605
14	-4606
24	-4607
3,	-4608
3?	-4609
66	-4610
8.	-4611
99	-4612
9;	-4613
Ac	-4614
Al	-4615
Am	-4616
Br	-4617
Do	-4618
EV	-4619
Ge	-4620
He	-4621
Hu	-4622
Me	-4623
Mu	-4624
Of	-4625
PI	-4626
PL	-4627
Pe	-4628
RO	-4629
RT	-4630
SA	-4631
Sh	-4632
Sp	-4633
Su	-4634
TA	-4635
TE	-4636
TR	-4637
TU	-4638
Ta	-4639
Te	-4640
Th	-4641
Tr	-4642
Tu	-4643
UI	-4644
Us	-4645
VA	-4646
Vi	-4647
Wi	-4648
Xi	-4649
Yo	-4650
ZA	-4651
],	-4652
].	-4653
aa	-4654
ai	-4655
au	-4656
ax	-4657
bM	-4658
bi	-4659
bj	-4660
bl	-4661
bn	-4662
bo	-4663
br	-4664
bs	-4665
bt	-4666
bu	-4667
bv	-4668
ca	-4669
ck	-4670
cq	-4671
cu	-4672
da	-4673
dg	-4674
dl	-4675
dm	-4676
do	-4677
dr	-4678
ea	-4679
eb	-4680
ee	-4681
ef	-4682
ei	-4683
ek	-4684
eo	-4685
eq	-4686
eu	-4687
ew	-4688
ey	-4689
fa	-4690
fe	-4691
fi	-4692
fo	-4693
fr	-4694
fu	-4695
fy	-4696
gY	-4697
ga	-4698
gh	-4699
(1	-4700
(7	-4701
+·	-4702
,1	-4703
2:	-4704
48	-4705
94	-4706
:/	-4707
Bi	-4708
Bo	-4709
El	-4710
Es	-4711
Ga	-4712
IS	-4713
NO	-4714
Na	-4715
Wo	-4716
Za	-4717
cs	-4718
df	-4719
dv	-4720
fl	-4721
gi	-4722
gl	-4723
go	-4724
gp	-4725
gr	-4726
gs	-4727
gt	-4728
hi	-4729
hm	-4730
ho	-4731
hp	-4732
hr	-4733
hu	-4734
hw	-4735
hy	-4736
ih	-4737
io	-4738
iq	-4739
je	-4740
jo	-4741
ju	-4742
ka	-4743
kd	-4744
ki	-4745
km	-4746
kn	-4747
kp	-4748
lT	-4749
lc	-4750
lg	-4751
lk	-4752
lm	-4753
lp	-4754
lr	-4755
lt	-4756
lv	-4757
lw	-4758
mb	-4759
me	-4760
mf	-4761
mi	-4762
ml	-4763
mn	-4764
mu	-4765
na	-4766
nb	-4767
nc	-4768
nd	-4769
nf	-4770
ng	-4771
nk	-4772
nl	-4773
nm	-4774
nn	-4775
no	-4776
np	-4777
ns	-4778
nt	-4779
nu	-4780
nv	-4781
ny	-4782
oB	-4783
oa	-4784
ob	-4785
oe	-4786
oi	-4787
ok	-4788
ov	-4789
ox	-4790
pa	-4791
pc	-4792
pd	-4793
pf	-4794
pm	-4795
po	-4796
pr	-4797
pu	-4798
rb	-4799
)—	-4800
-1	-4801
.)	-4802
0(	-4803
05	-4804
1;	-4805
26	-4806
27	-4807
28	-4808
32	-4809
4.	-4810
40	-4811
42	-4812
5,	-4813
57	-4814
58	-4815
60	-4816
82	-4817
Ad	-4818
Ap	-4819
CA	-4820
CO	-4821
Du	-4822
Dy	-4823
Ea	-4824
Er	-4825
Ev	-4826
Ex	-4827
Go	-4828
HI	-4829
Hi	-4830
IT	-4831
NA	-4832
SP	-4833
TM	-4834
TO	-4835
UE	-4836
WI	-4837
ez	-4838
fm	-4839
jh	-4840
kW	-4841
rc	-4842
rd	-4843
rf	-4844
rg	-4845
rh	-4846
rk	-4847
rl	-4848
rm	-4849
rn	-4850
rp	-4851
rs	-4852
rt	-4853
ru	-4854
rv	-4855
rw	-4856
sa	-4857
sf	-4858
si	-4859
sk	-4860
sl	-4861
sm	-4862
sn	-4863
sp	-4864
ta	-4865
tb	-4866
tc	-4867
ti	-4868
tl	-4869
tm	-4870
tp	-4871
tr	-4872
ts	-4873
tt	-4874
tu	-4875
tw	-4876
ty	-4877
ua	-4878
uf	-4879
ui	-4880
uu	-4881
va	-4882
vl	-4883
vo	-4884
vs	-4885
wa	-4886
wl	-4887
wo	-4888
xa	-4889
xc	-4890
xe	-4891
xi	-4892
xp	-4893
xt	-4894
xy	-4895
yP	-4896
ya	-4897
yc	-4898
ye	-4899
1×	-4900
AF	-4901
Im	-4902
Ju	-4903
Ll	-4904
Ot	-4905
Ov	-4906
PR	-4907
Po	-4908
Ri	-4909
Ro	-4910
Sk	-4911
TY	-4912
US	-4913
Un	-4914
Va	-4915
XT	-4916
[1	-4917
bp	-4918
cG	-4919
dj	-4920
ej	-4921
hl	-4922
hn	-4923
hs	-4924
iu	-4925
nh	-4926
nw	-4927
oh	-4928
sq	-4929
vu	-4930
wp	-4931
xh	-4932
xw	-4933
yf	-4934
yg	-4935
yi	-4936
yl	-4937
ym	-4938
yo	-4939
yr	-4940
ys	-4941
yz	-4942
za	-4943
zi	-4944
zl	-4945
‘‘	-4946
’:	-4947
”)	-4948
”|	-4949
−1	-4950
−2	-4951
▁!	-4952
▁j	-4953
▁q	-4954
100	-4955
199	-4956
3).	-4957
7.1	-4958
7.4	-4959
Ara	-4960
Bic	-4961
Car	-4962
Cle	-4963
Con	-4964
DEL	-4965
Dem	-4966
Dow	-4967
Fin	-4968
For	-4969
Lan	-4970
Lar	-4971
Let	-4972
Mar	-4973
Mas	-4974
Mil	-4975
Mul	-4976
NGU	-4977
Nor	-4978
Not	-4979
Now	-4980
ONA	-4981
Oth	-4982
PTI	-4983
Pil	-4984
Pro	-4985
RAI	-4986
Ran	-4987
Res	-4988
Ric	-4989
SPT	-4990
STO	-4991
San	-4992
TES	-4993
Val	-4994
Vir	-4995
Wit	-4996
aig	-4997
ale	-4998
alo	-4999
,.	-5000
=0	-5001
Din	-5002
Her	-5003
Hin	-5004
LUA	-5005
Lon	-5006
Per	-5007
als	-5008
alt	-5009
ans	-5010
ara	-5011
arc	-5012
ari	-5013
ark	-5014
asn	-5015
atc	-5016
ati	-5017
awl	-5018
bed	-5019
bes	-5020
bet	-5021
bit	-5022
bor	-5023
bus	-5024
cal	-5025
can	-5026
chi	-5027
chn	-5028
cin	-5029
cit	-5030
cks	-5031
cog	-5032
cou	-5033
cra	-5034
cre	-5035
ctl	-5036
cts	-5037
cus	-5038
dal	-5039
dds	-5040
dea	-5041
dec	-5042
def	-5043
dem	-5044
den	-5045
dig	-5046
din	-5047
dis	-5048
dre	-5049
dul	-5050
eal	-5051
eam	-5052
ece	-5053
eco	-5054
edm	-5055
edu	-5056
edy	-5057
eed	-5058
eet	-5059
ein	-5060
eit	-5061
emp	-5062
ena	-5063
enc	-5064
enf	-5065
eni	-5066
enl	-5067
eno	-5068
eon	-5069
eot	-5070
era	-5071
erc	-5072
erf	-5073
eri	-5074
erl	-5075
erp	-5076
ery	-5077
esn	-5078
eta	-5079
etc	-5080
ete	-5081
eti	-5082
ett	-5083
exc	-5084
fen	-5085
fre	-5086
gel	-5087
gem	-5088
ger	-5089
gis	-5090
git	-5091
gma	-5092
gua	-5093
hal	-5094
hat	-5095
hed	-5096
hen	-5097
hin	-5098
hit	-5099
7.5	-5100
7.8	-5101
Gen	-5102
Hen	-5103
Ser	-5104
Ter	-5105
atu	-5106
ben	-5107
but	-5108
cen	-5109
dat	-5110
don	-5111
edd	-5112
eer	-5113
enb	-5114
ene	-5115
env	-5116
erd	-5117
erh	-5118
erw	-5119
gat	-5120
gen	-5121
hli	-5122
hon	-5123
hoo	-5124
hre	-5125
ica	-5126
icu	-5127
ien	-5128
ier	-5129
iet	-5130
iff	-5131
ila	-5132
ili	-5133
ils	-5134
ime	-5135
imp	-5136
ina	-5137
inc	-5138
inf	-5139
inh	-5140
inl	-5141
inn	-5142
ino	-5143
inp	-5144
ins	-5145
inu	-5146
inv	-5147
ior	-5148
irg	-5149
isn	-5150
isu	-5151
ita	-5152
itt	-5153
ivi	-5154
kes	-5155
kil	-5156
kin	-5157
las	-5158
lat	-5159
lec	-5160
len	-5161
ler	-5162
lev	-5163
lin	-5164
lma	-5165
lon	-5166
lor	-5167
low	-5168
lsi	-5169
lum	-5170
lus	-5171
lut	-5172
mat	-5173
med	-5174
men	-5175
mil	-5176
mis	-5177
mit	-5178
mly	-5179
mor	-5180
mpu	-5181
nat	-5182
nco	-5183
ner	-5184
net	-5185
nin	-5186
non	-5187
oar	-5188
ode	-5189
ogy	-5190
oin	-5191
omi	-5192
ona	-5193
onc	-5194
ond	-5195
oni	-5196
onl	-5197
onm	-5198
onp	-5199
00?	-5200
Cor	-5201
Dat	-5202
Fil	-5203
Gre	-5204
Pre	-5205
alk	-5206
atb	-5207
ato	-5208
atr	-5209
bat	-5210
cat	-5211
cor	-5212
eat	-5213
eff	-5214
gre	-5215
him	-5216
hum	-5217
iat	-5218
ima	-5219
its	-5220
lac	-5221
lre	-5222
nor	-5223
ods	-5224
ont	-5225
onv	-5226
oom	-5227
oor	-5228
oos	-5229
orc	-5230
ord	-5231
ori	-5232
ork	-5233
orl	-5234
oro	-5235
orr	-5236
orw	-5237
ove	-5238
pat	-5239
pco	-5240
ped	-5241
pee	-5242
per	-5243
pes	-5244
pin	-5245
pit	-5246
plo	-5247
por	-5248
ppl	-5249
pri	-5250
pts	-5251
raf	-5252
rag	-5253
rat	-5254
rea	-5255
rec	-5256
red	-5257
ref	-5258
reg	-5259
rej	-5260
rep	-5261
req	-5262
ret	-5263
rev	-5264
rew	-5265
rge	-5266
rig	-5267
rim	-5268
rin	-5269
rly	-5270
roa	-5271
roc	-5272
rol	-5273
roo	-5274
rop	-5275
ror	-5276
ros	-5277
rot	-5278
rov	-5279
rre	-5280
rri	-5281
saf	-5282
sar	-5283
sat	-5284
sen	-5285
ser	-5286
sib	-5287
sic	-5288
sin	-5289
sof	-5290
sor	-5291
sum	-5292
tab	-5293
tat	-5294
tem	-5295
ths	-5296
tin	-5297
tra	-5298
tre	-5299
-0.	-5300
FET	-5301
Man	-5302
Set	-5303
alT	-5304
anc	-5305
ani	-5306
ank	-5307
anw	-5308
dan	-5309
dit	-5310
duc	-5311
evi	-5312
exh	-5313
fan	-5314
han	-5315
hil	-5316
icl	-5317
igm	-5318
ipl	-5319
isc	-5320
iti	-5321
itr	-5322
jus	-5323
lan	-5324
lig	-5325
lis	-5326
lit	-5327
nde	-5328
nic	-5329
nit	-5330
nth	-5331
pan	-5332
san	-5333
sed	-5334
sit	-5335
tan	-5336
tis	-5337
tro	-5338
tun	-5339
tur	-5340
uat	-5341
ubM	-5342
uen	-5343
uer	-5344
ues	-5345
uff	-5346
ulk	-5347
ulp	-5348
unc	-5349
unl	-5350
upl	-5351
urc	-5352
uru	-5353
usn	-5354
usu	-5355
uti	-5356
uto	-5357
utt	-5358
van	-5359
var	-5360
vas	-5361
vat	-5362
vem	-5363
ven	-5364
vic	-5365
vin	-5366
vit	-5367
wen	-5368
wer	-5369
win	-5370
xed	-5371
xit	-5372
yan	-5373
yed	-5374
yer	-5375
yet	-5376
yin	-5377
yst	-5378
zat	-5379
zen	-5380
zer	-5381
zes	-5382
zin	-5383
”),	-5384
▁.5	-5385
▁1-	-5386
▁Am	-5387
▁CH	-5388
▁Cl	-5389
▁Co	-5390
▁EV	-5391
▁Er	-5392
▁HE	-5393
▁IR	-5394
▁Id	-5395
▁Im	-5396
▁LL	-5397
▁LS	-5398
▁Me	-5399
Fro	-5400
Mic	-5401
Mis	-5402
Pri	-5403
ali	-5404
aum	-5405
bro	-5406
cil	-5407
cis	-5408
cro	-5409
dar	-5410
dde	-5411
dee	-5412
dep	-5413
det	-5414
dev	-5415
esp	-5416
fet	-5417
fro	-5418
gro	-5419
har	-5420
hem	-5421
hes	-5422
hic	-5423
his	-5424
hro	-5425
ide	-5426
isi	-5427
ism	-5428
isp	-5429
iss	-5430
itl	-5431
lde	-5432
mes	-5433
nes	-5434
oes	-5435
rit	-5436
rob	-5437
rod	-5438
roe	-5439
rof	-5440
rou	-5441
row	-5442
rox	-5443
rro	-5444
tes	-5445
uis	-5446
usi	-5447
utu	-5448
ved	-5449
vis	-5450
wis	-5451
xis	-5452
ymp	-5453
▁Mu	-5454
▁Ow	-5455
▁PI	-5456
▁Pu	-5457
▁SF	-5458
▁Ta	-5459
▁Tu	-5460
▁Wo	-5461
▁aa	-5462
▁ah	-5463
▁am	-5464
▁au	-5465
▁ci	-5466
▁cr	-5467
▁cu	-5468
▁ec	-5469
▁er	-5470
▁fi	-5471
▁fr	-5472
▁ge	-5473
▁hi	-5474
▁id	-5475
▁la	-5476
▁li	-5477
▁lu	-5478
▁mi	-5479
▁mu	-5480
▁na	-5481
▁oc	-5482
▁od	-5483
▁op	-5484
▁ot	-5485
▁ou	-5486
▁ov	-5487
▁ow	-5488
▁pa	-5489
▁pi	-5490
▁ps	-5491
▁pu	-5492
▁ru	-5493
▁sk	-5494
▁sn	-5495
▁sq	-5496
▁ti	-5497
▁tu	-5498
▁ty	-5499
Nag	-5500
Tex	-5501
alw	-5502
bal	-5503
eda	-5504
edf	-5505
edg	-5506
edl	-5507
exi	-5508
fes	-5509
ged	-5510
ked	-5511
mal	-5512
mpa	-5513
mpe	-5514
mpi	-5515
mpl	-5516
mpo	-5517
nal	-5518
ned	-5519
nex	-5520
oal	-5521
oic	-5522
sal	-5523
tal	-5524
tex	-5525
ued	-5526
yal	-5527
zed	-5528
▁(1	-5529
▁ba	-5530
▁ea	-5531
▁fa	-5532
▁fu	-5533
▁gr	-5534
▁wa	-5535
▁wo	-5536
)...	-5537
Amer	-5538
DELS	-5539
Fing	-5540
Hend	-5541
Here	-5542
Kiel	-5543
LING	-5544
Norm	-5545
Over	-5546
Tran	-5547
UAGE	-5548
With	-5549
actu	-5550
ader	-5551
agan	-5552
agem	-5553
agic	-5554
airn	-5555
alen	-5556
alic	-5557
alit	-5558
amic	-5559
ampa	-5560
anat	-5561
ande	-5562
anit	-5563
aren	-5564
arit	-5565
arks	-5566
arli	-5567
asur	-5568
atem	-5569
aten	-5570
atin	-5571
atue	-5572
atur	-5573
augh	-5574
ayer	-5575
ceed	-5576
chen	-5577
cher	-5578
ches	-5579
choo	-5580
cies	-5581
cont	-5582
core	-5583
crib	-5584
cter	-5585
ctic	-5586
ctiv	-5587
cuit	-5588
curr	-5589
dain	-5590
deal	-5591
deat	-5592
deco	-5593
dedu	-5594
dels	-5595
ders	-5596
dest	-5597
deve	-5598
each	-5599
,90	-5600
AGE	-5601
But	-5602
Dar	-5603
NER	-5604
Var	-5605
arr	-5606
cep	-5607
ear	-5608
etr	-5609
etu	-5610
gar	-5611
gea	-5612
gic	-5613
has	-5614
het	-5615
hus	-5616
lar	-5617
met	-5618
nct	-5619
oco	-5620
ote	-5621
qui	-5622
rus	-5623
sul	-5624
tar	-5625
tic	-5626
ube	-5627
usa	-5628
use	-5629
usl	-5630
uth	-5631
utp	-5632
uts	-5633
war	-5634
wic	-5635
yar	-5636
▁da	-5637
▁dr	-5638
2020	-5639
Each	-5640
amin	-5641
atus	-5642
delu	-5643
edge	-5644
edic	-5645
edil	-5646
emic	-5647
enba	-5648
ench	-5649
ende	-5650
ened	-5651
enin	-5652
enor	-5653
enti	-5654
entr	-5655
eral	-5656
eran	-5657
erap	-5658
erde	-5659
ered	-5660
eren	-5661
eres	-5662
eric	-5663
erin	-5664
eris	-5665
erly	-5666
ermo	-5667
erse	-5668
essa	-5669
esti	-5670
etat	-5671
eter	-5672
etit	-5673
etun	-5674
exis	-5675
exit	-5676
fect	-5677
fens	-5678
gage	-5679
gest	-5680
gist	-5681
gure	-5682
heng	-5683
heth	-5684
hics	-5685
hing	-5686
hood	-5687
ials	-5688
ibit	-5689
icat	-5690
icin	-5691
icit	-5692
idel	-5693
ient	-5694
ifor	-5695
ighp	-5696
igra	-5697
ilar	-5698
ilde	-5699
,..	-5700
HIC	-5701
Has	-5702
Nas	-5703
abu	-5704
asu	-5705
bas	-5706
bil	-5707
cti	-5708
eas	-5709
fil	-5710
ias	-5711
ilo	-5712
ilt	-5713
mod	-5714
oct	-5715
ogu	-5716
oil	-5717
ras	-5718
rid	-5719
ril	-5720
tas	-5721
uil	-5722
yco	-5723
▁ga	-5724
▁gi	-5725
Jack	-5726
aint	-5727
aset	-5728
atas	-5729
ccur	-5730
cent	-5731
deas	-5732
empt	-5733
entl	-5734
erci	-5735
ffel	-5736
gent	-5737
gues	-5738
hest	-5739
ildr	-5740
ilen	-5741
iler	-5742
ilis	-5743
ilit	-5744
ille	-5745
imal	-5746
imat	-5747
imil	-5748
inal	-5749
inat	-5750
inde	-5751
ined	-5752
inet	-5753
ingl	-5754
ings	-5755
ingu	-5756
inin	-5757
inis	-5758
init	-5759
inst	-5760
iona	-5761
iont	-5762
iple	-5763
iric	-5764
irly	-5765
ised	-5766
isin	-5767
isit	-5768
isms	-5769
ista	-5770
ital	-5771
itas	-5772
itat	-5773
iter	-5774
itic	-5775
itry	-5776
itut	-5777
ivit	-5778
kely	-5779
kens	-5780
lama	-5781
leas	-5782
lems	-5783
lers	-5784
lion	-5785
list	-5786
lose	-5787
loss	-5788
luen	-5789
mall	-5790
mate	-5791
mful	-5792
mist	-5793
move	-5794
mpar	-5795
mpat	-5796
mper	-5797
mpet	-5798
mpir	-5799
Cra	-5800
Ele	-5801
Lab	-5802
abe	-5803
abl	-5804
bab	-5805
ble	-5806
cab	-5807
chm	-5808
cle	-5809
ele	-5810
eve	-5811
gle	-5812
gra	-5813
iab	-5814
ira	-5815
kab	-5816
lef	-5817
leg	-5818
lel	-5819
lem	-5820
lle	-5821
lly	-5822
lve	-5823
nab	-5824
oci	-5825
ole	-5826
ple	-5827
rab	-5828
rac	-5829
rad	-5830
rau	-5831
wab	-5832
zle	-5833
▁(0	-5834
▁(2	-5835
▁(7	-5836
▁.7	-5837
▁Ho	-5838
▁TE	-5839
▁TH	-5840
▁hu	-5841
▁hy	-5842
OMPT	-5843
THIC	-5844
ctly	-5845
exts	-5846
extu	-5847
geab	-5848
icab	-5849
igms	-5850
ilab	-5851
mple	-5852
mply	-5853
mpon	-5854
mpor	-5855
mpos	-5856
mpre	-5857
mpro	-5858
mpts	-5859
mput	-5860
ncod	-5861
next	-5862
norm	-5863
nost	-5864
nown	-5865
nows	-5866
nstr	-5867
nter	-5868
odel	-5869
ogic	-5870
ogit	-5871
ogle	-5872
ogra	-5873
oing	-5874
omic	-5875
onal	-5876
onat	-5877
onde	-5878
oned	-5879
onen	-5880
onic	-5881
onin	-5882
onom	-5883
onse	-5884
ooks	-5885
oose	-5886
opol	-5887
orat	-5888
orce	-5889
oric	-5890
orin	-5891
orit	-5892
orks	-5893
ormo	-5894
orre	-5895
orst	-5896
osit	-5897
otic	-5898
owab	-5899
+..	-5900
0).	-5901
Big	-5902
Est	-5903
bly	-5904
cce	-5905
che	-5906
cqu	-5907
dow	-5908
gly	-5909
hly	-5910
nch	-5911
nig	-5912
nst	-5913
owe	-5914
owl	-5915
owp	-5916
ows	-5917
rch	-5918
rst	-5919
sig	-5920
sti	-5921
tly	-5922
ych	-5923
▁AN	-5924
▁ET	-5925
▁MO	-5926
▁ig	-5927
▁nu	-5928
apon	-5929
chan	-5930
ched	-5931
chin	-5932
eans	-5933
edly	-5934
emot	-5935
enly	-5936
erst	-5937
etch	-5938
hone	-5939
icly	-5940
igat	-5941
inly	-5942
keni	-5943
lech	-5944
onst	-5945
orig	-5946
owar	-5947
oyed	-5948
peat	-5949
peci	-5950
pend	-5951
ping	-5952
pter	-5953
ptim	-5954
qual	-5955
quiv	-5956
race	-5957
raci	-5958
rand	-5959
rare	-5960
rath	-5961
read	-5962
reas	-5963
regu	-5964
rein	-5965
rele	-5966
rent	-5967
rest	-5968
rien	-5969
rill	-5970
ring	-5971
rish	-5972
road	-5973
role	-5974
roll	-5975
romp	-5976
rors	-5977
rove	-5978
samp	-5979
sers	-5980
sigh	-5981
sion	-5982
sist	-5983
sity	-5984
sive	-5985
sses	-5986
stat	-5987
stic	-5988
stly	-5989
stra	-5990
stre	-5991
tage	-5992
tate	-5993
tent	-5994
then	-5995
thes	-5996
thic	-5997
thly	-5998
thre	-5999
9).	-6000
cem	-6001
cul	-6002
lod	-6003
mul	-6004
oul	-6005
rce	-6006
sue	-6007
uce	-6008
ull	-6009
yap	-6010
▁Ga	-6011
▁LC	-6012
▁Le	-6013
▁Lo	-6014
▁Su	-6015
Ster	-6016
Valu	-6017
bers	-6018
ecod	-6019
exce	-6020
fter	-6021
geth	-6022
hang	-6023
icip	-6024
icul	-6025
once	-6026
quis	-6027
tera	-6028
term	-6029
terp	-6030
ters	-6031
tery	-6032
ties	-6033
tion	-6034
tive	-6035
uent	-6036
uest	-6037
ulat	-6038
ully	-6039
unde	-6040
unif	-6041
unig	-6042
unse	-6043
urat	-6044
ures	-6045
urpl	-6046
urth	-6047
usal	-6048
usan	-6049
uses	-6050
usly	-6051
usts	-6052
utat	-6053
uted	-6054
uter	-6055
util	-6056
utom	-6057
vacy	-6058
veat	-6059
vect	-6060
vely	-6061
vera	-6062
vess	-6063
vice	-6064
volv	-6065
wers	-6066
wing	-6067
xamp	-6068
ying	-6069
zing	-6070
▁CHA	-6071
▁CON	-6072
▁Cor	-6073
▁Dol	-6074
▁Dow	-6075
▁Ele	-6076
▁Fil	-6077
▁Fri	-6078
▁GPU	-6079
▁Hum	-6080
▁LAR	-6081
▁LST	-6082
▁Lab	-6083
▁Lar	-6084
▁Los	-6085
▁Mic	-6086
▁Min	-6087
▁Mos	-6088
▁Mov	-6089
▁Mul	-6090
▁Nag	-6091
▁Pos	-6092
▁Pri	-6093
▁Pyg	-6094
▁Ree	-6095
▁RoB	-6096
▁SAF	-6097
▁Ser	-6098
▁Ter	-6099
7.3	-6100
Mos	-6101
Pos	-6102
Ske	-6103
col	-6104
cop	-6105
gog	-6106
gth	-6107
hos	-6108
kee	-6109
kel	-6110
los	-6111
oll	-6112
osu	-6113
pos	-6114
rth	-6115
tma	-6116
▁ef	-6117
▁eq	-6118
▁yf	-6119
From	-6120
Pers	-6121
Samp	-6122
apsh	-6123
enco	-6124
ersp	-6125
hers	-6126
iate	-6127
iers	-6128
ifel	-6129
isco	-6130
ithm	-6131
kers	-6132
mers	-6133
ners	-6134
peak	-6135
pers	-6136
rate	-6137
uate	-6138
vate	-6139
vide	-6140
yers	-6141
zers	-6142
▁Spe	-6143
▁Tex	-6144
▁Tra	-6145
▁Wei	-6146
▁Woo	-6147
▁adj	-6148
▁alg	-6149
▁ali	-6150
▁alm	-6151
▁als	-6152
▁alt	-6153
▁alw	-6154
▁ana	-6155
▁ano	-6156
▁ans	-6157
▁asp	-6158
▁asy	-6159
▁bac	-6160
▁bap	-6161
▁bas	-6162
▁bat	-6163
▁bea	-6164
▁beh	-6165
▁bes	-6166
▁bet	-6167
▁bil	-6168
▁cal	-6169
▁cap	-6170
▁car	-6171
▁cen	-6172
▁cer	-6173
▁cha	-6174
▁che	-6175
▁cle	-6176
▁cog	-6177
▁coh	-6178
▁cop	-6179
▁cou	-6180
▁cov	-6181
▁cra	-6182
▁cro	-6183
▁dan	-6184
▁ded	-6185
▁dee	-6186
▁def	-6187
▁dem	-6188
▁dep	-6189
▁des	-6190
▁dow	-6191
▁dra	-6192
▁dur	-6193
▁eit	-6194
▁ele	-6195
▁enf	-6196
▁exa	-6197
▁exc	-6198
▁fal	-6199
Dur	-6200
Eth	-6201
Fri	-6202
bvi	-6203
cri	-6204
dri	-6205
eiz	-6206
equ	-6207
eur	-6208
fri	-6209
hel	-6210
imo	-6211
iri	-6212
irs	-6213
lam	-6214
lay	-6215
lie	-6216
lth	-6217
lur	-6218
oun	-6219
pea	-6220
qua	-6221
tha	-6222
tho	-6223
thw	-6224
tri	-6225
urg	-6226
yth	-6227
▁.9	-6228
▁Ac	-6229
▁Ap	-6230
▁Ar	-6231
▁Fr	-6232
▁Ha	-6233
▁kn	-6234
atri	-6235
isti	-6236
mmat	-6237
pear	-6238
quen	-6239
quit	-6240
rior	-6241
than	-6242
ucin	-6243
uran	-6244
urce	-6245
urro	-6246
urur	-6247
vlic	-6248
▁Car	-6249
▁Cle	-6250
▁Cra	-6251
▁Fir	-6252
▁Tur	-6253
▁bef	-6254
▁beg	-6255
▁bri	-6256
▁exh	-6257
▁fan	-6258
▁fas	-6259
▁fic	-6260
▁fil	-6261
▁fre	-6262
▁fro	-6263
▁gar	-6264
▁goo	-6265
▁gre	-6266
▁hal	-6267
▁han	-6268
▁hat	-6269
▁hen	-6270
▁her	-6271
▁hig	-6272
▁hin	-6273
▁hum	-6274
▁ind	-6275
▁inf	-6276
▁inh	-6277
▁inp	-6278
▁ins	-6279
▁inv	-6280
▁iso	-6281
▁iss	-6282
▁ite	-6283
▁iti	-6284
▁kne	-6285
▁lab	-6286
▁lan	-6287
▁lar	-6288
▁las	-6289
▁lat	-6290
▁lea	-6291
▁len	-6292
▁les	-6293
▁lin	-6294
▁lis	-6295
▁liv	-6296
▁lon	-6297
▁los	-6298
▁lot	-6299
MPT	-6300
aph	-6301
apt	-6302
dap	-6303
dif	-6304
hap	-6305
ife	-6306
iqu	-6307
lif	-6308
nif	-6309
run	-6310
sif	-6311
tif	-6312
unf	-6313
uni	-6314
unn	-6315
▁..	-6316
▁.1	-6317
▁26	-6318
▁FA	-6319
▁Fi	-6320
▁IS	-6321
▁Wi	-6322
▁vi	-6323
▁vo	-6324
▁vu	-6325
Mist	-6326
anci	-6327
died	-6328
dupl	-6329
eith	-6330
etap	-6331
hist	-6332
ighw	-6333
ignm	-6334
ikel	-6335
istr	-6336
itho	-6337
lies	-6338
ligh	-6339
quer	-6340
righ	-6341
roso	-6342
unct	-6343
▁Ske	-6344
▁Tun	-6345
▁dap	-6346
▁gif	-6347
▁leg	-6348
▁lun	-6349
▁maj	-6350
▁mak	-6351
▁man	-6352
▁men	-6353
▁mes	-6354
▁mic	-6355
▁mig	-6356
▁min	-6357
▁mit	-6358
▁mix	-6359
▁mon	-6360
▁mos	-6361
▁mot	-6362
▁mov	-6363
▁mul	-6364
▁mus	-6365
▁nam	-6366
▁nat	-6367
▁net	-6368
▁nor	-6369
▁obj	-6370
▁oft	-6371
▁onl	-6372
▁ord	-6373
▁pas	-6374
▁pic	-6375
▁pie	-6376
▁pla	-6377
▁por	-6378
▁pos	-6379
▁pow	-6380
▁pra	-6381
▁pur	-6382
▁pus	-6383
▁rea	-6384
▁red	-6385
▁ref	-6386
▁reg	-6387
▁rej	-6388
▁rem	-6389
▁rep	-6390
▁req	-6391
▁rev	-6392
▁rew	-6393
▁rus	-6394
▁sam	-6395
▁ser	-6396
▁sho	-6397
▁sig	-6398
▁sin	-6399
)..	-6400
bse	-6401
imi	-6402
imm	-6403
irm	-6404
irn	-6405
mse	-6406
ppe	-6407
tim	-6408
vac	-6409
▁IN	-6410
▁Is	-6411
▁MM	-6412
▁Sp	-6413
▁kW	-6414
ERTA	-6415
ariz	-6416
cope	-6417
erim	-6418
espe	-6419
imes	-6420
imit	-6421
imul	-6422
iron	-6423
mpto	-6424
nigh	-6425
pell	-6426
sear	-6427
ture	-6428
wled	-6429
xies	-6430
▁200	-6431
▁Est	-6432
▁Man	-6433
▁Mar	-6434
▁Mas	-6435
▁Mil	-6436
▁Tak	-6437
▁cir	-6438
▁dim	-6439
▁fir	-6440
▁kil	-6441
▁lef	-6442
▁sec	-6443
▁sel	-6444
▁sit	-6445
▁siz	-6446
▁ske	-6447
▁soc	-6448
▁sof	-6449
▁sop	-6450
▁sor	-6451
▁spo	-6452
▁sta	-6453
▁ste	-6454
▁sto	-6455
▁suf	-6456
▁sum	-6457
▁tak	-6458
▁tap	-6459
▁tar	-6460
▁ten	-6461
▁ter	-6462
▁tes	-6463
▁tex	-6464
▁tha	-6465
▁thi	-6466
▁tho	-6467
▁thr	-6468
▁thu	-6469
▁tod	-6470
▁tog	-6471
▁tok	-6472
▁ton	-6473
▁tou	-6474
▁tow	-6475
▁tox	-6476
▁tra	-6477
▁tun	-6478
▁tur	-6479
▁unf	-6480
▁unl	-6481
▁usu	-6482
▁val	-6483
▁var	-6484
▁vas	-6485
▁wan	-6486
▁war	-6487
▁wea	-6488
▁wei	-6489
▁wel	-6490
▁wen	-6491
▁wer	-6492
▁wil	-6493
▁wit	-6494
▁wro	-6495
0,000	-6496
ALUAT	-6497
Gener	-6498
Langu	-6499
1).	-6500
4).	-6501
5).	-6502
95,	-6503
Rog	-6504
Xiv	-6505
emb	-6506
ems	-6507
mot	-6508
ock	-6509
ogY	-6510
oty	-6511
pla	-6512
pli	-6513
sam	-6514
”).	-6515
▁PR	-6516
▁Pa	-6517
Rich	-6518
agra	-6519
allu	-6520
call	-6521
chem	-6522
deem	-6523
edag	-6524
emed	-6525
emor	-6526
exib	-6527
hich	-6528
iche	-6529
imot	-6530
lude	-6531
nput	-6532
pant	-6533
plan	-6534
ples	-6535
puts	-6536
ribe	-6537
rich	-6538
root	-6539
thay	-6540
▁Chr	-6541
▁Haw	-6542
▁Inc	-6543
▁Pil	-6544
▁Pro	-6545
▁doc	-6546
▁enc	-6547
▁eno	-6548
▁ens	-6549
▁env	-6550
▁stu	-6551
▁sug	-6552
▁yal	-6553
▁yan	-6554
▁yap	-6555
Other	-6556
SSUES	-6557
Sampl	-6558
Toxic	-6559
acher	-6560
aches	-6561
achin	-6562
actly	-6563
actor	-6564
afety	-6565
ainst	-6566
airly	-6567
akers	-6568
alent	-6569
aling	-6570
alion	-6571
alled	-6572
aluat	-6573
alued	-6574
alues	-6575
ament	-6576
andar	-6577
andom	-6578
angua	-6579
aning	-6580
anism	-6581
anist	-6582
anity	-6583
anken	-6584
antas	-6585
apers	-6586
appen	-6587
arent	-6588
arger	-6589
arket	-6590
arlin	-6591
arner	-6592
astly	-6593
asure	-6594
atent	-6595
athet	-6596
atics	-6597
atter	-6598
aused	-6599
Hum	-6600
bez	-6601
cam	-6602
fel	-6603
nsw	-6604
oks	-6605
soc	-6606
umb	-6607
umm	-6608
▁EO	-6609
▁GE	-6610
STMs	-6611
acts	-6612
aliz	-6613
amil	-6614
answ	-6615
aram	-6616
asks	-6617
ativ	-6618
ciet	-6619
duce	-6620
enag	-6621
eref	-6622
hant	-6623
imiz	-6624
inks	-6625
iven	-6626
nder	-6627
oreg	-6628
ossi	-6629
over	-6630
ssed	-6631
tant	-6632
verf	-6633
verl	-6634
▁Ima	-6635
▁Iss	-6636
▁LAN	-6637
▁dom	-6638
▁ema	-6639
alect	-6640
aract	-6641
assif	-6642
auses	-6643
aving	-6644
avlic	-6645
ayers	-6646
aying	-6647
babil	-6648
bally	-6649
cally	-6650
ccess	-6651
ccurr	-6652
chers	-6653
ching	-6654
chool	-6655
ciate	-6656
conom	-6657
cting	-6658
ctual	-6659
cture	-6660
dated	-6661
dding	-6662
decod	-6663
deled	-6664
delus	-6665
dence	-6666
destr	-6667
deter	-6668
dical	-6669
dicat	-6670
dicts	-6671
dings	-6672
dying	-6673
ecker	-6674
ected	-6675
edfor	-6676
eding	-6677
eizen	-6678
emory	-6679
encod	-6680
energ	-6681
enorm	-6682
entar	-6683
entat	-6684
ented	-6685
enten	-6686
entic	-6687
entif	-6688
entim	-6689
entis	-6690
entri	-6691
entro	-6692
erage	-6693
erall	-6694
erent	-6695
erful	-6696
erist	-6697
error	-6698
ersar	-6699
Jac	-6700
LMs	-6701
aga	-6702
els	-6703
iel	-6704
iew	-6705
lag	-6706
moo	-6707
omm	-6708
ook	-6709
pag	-6710
tac	-6711
▁Ra	-6712
acce	-6713
dult	-6714
elan	-6715
eled	-6716
elle	-6717
elon	-6718
essf	-6719
etwe	-6720
fare	-6721
ftma	-6722
gain	-6723
hens	-6724
hous	-6725
igno	-6726
igns	-6727
imag	-6728
inci	-6729
lign	-6730
nowl	-6731
ocab	-6732
omat	-6733
omly	-6734
ousn	-6735
pond	-6736
rics	-6737
room	-6738
sult	-6739
ulti	-6740
ults	-6741
valu	-6742
▁Sel	-6743
▁arg	-6744
▁fac	-6745
▁hel	-6746
▁neg	-6747
▁obs	-6748
▁pag	-6749
arned	-6750
cient	-6751
domly	-6752
erspe	-6753
esear	-6754
essag	-6755
essam	-6756
essed	-6757
essor	-6758
estab	-6759
ested	-6760
estim	-6761
eters	-6762
ethod	-6763
etion	-6764
etric	-6765
examp	-6766
exity	-6767
exten	-6768
extra	-6769
extre	-6770
feren	-6771
ffect	-6772
fines	-6773
gated	-6774
glish	-6775
gmaxw	-6776
guage	-6777
guess	-6778
ially	-6779
iases	-6780
iated	-6781
icant	-6782
icate	-6783
ichar	-6784
icity	-6785
icles	-6786
icult	-6787
iding	-6788
iffer	-6789
ified	-6790
ifies	-6791
igate	-6792
igher	-6793
ights	-6794
ignal	-6795
ignif	-6796
ikely	-6797
ilent	-6798
illus	-6799
0.9	-6800
30.	-6801
aug	-6802
cyc	-6803
ead	-6804
eop	-6805
hop	-6806
loc	-6807
lop	-6808
occ	-6809
opm	-6810
opo	-6811
oug	-6812
▁On	-6813
▁Op	-6814
▁Ov	-6815
▁−1	-6816
ains	-6817
dful	-6818
educ	-6819
fict	-6820
forw	-6821
lass	-6822
long	-6823
maxw	-6824
mmon	-6825
netw	-6826
ocat	-6827
ongp	-6828
pful	-6829
pose	-6830
rong	-6831
roug	-6832
tain	-6833
▁Cop	-6834
▁aca	-6835
▁foc	-6836
▁rat	-6837
▁ris	-6838
▁saf	-6839
▁sai	-6840
ainly	-6841
ausal	-6842
gment	-6843
hical	-6844
imate	-6845
imize	-6846
inate	-6847
inclu	-6848
ining	-6849
inish	-6850
inist	-6851
ional	-6852
ionat	-6853
ioned	-6854
irect	-6855
ising	-6856
ispro	-6857
istak	-6858
istan	-6859
istor	-6860
istri	-6861
isual	-6862
itect	-6863
ithin	-6864
iting	-6865
itude	-6866
ivate	-6867
ivers	-6868
iving	-6869
izers	-6870
justs	-6871
kable	-6872
kably	-6873
kenly	-6874
kenst	-6875
lated	-6876
lectr	-6877
lects	-6878
light	-6879
llows	-6880
loped	-6881
lsian	-6882
luent	-6883
mally	-6884
mands	-6885
marks	-6886
monly	-6887
mount	-6888
mpact	-6889
mpted	-6890
mptot	-6891
nform	-6892
nited	-6893
nment	-6894
nswer	-6895
ogist	-6896
oloss	-6897
olves	-6898
ommon	-6899
0),	-6900
1),	-6901
1:2	-6902
=0.	-6903
?),	-6904
BER	-6905
CAL	-6906
Dol	-6907
Sol	-6908
TER	-6909
avi	-6910
olf	-6911
olv	-6912
sup	-6913
tol	-6914
acki	-6915
arms	-6916
chol	-6917
gine	-6918
kpro	-6919
lack	-6920
lias	-6921
oice	-6922
olve	-6923
ppro	-6924
prof	-6925
rine	-6926
sues	-6927
tack	-6928
toco	-6929
vior	-6930
wice	-6931
▁Ano	-6932
▁Dat	-6933
▁Has	-6934
▁Hen	-6935
▁Hin	-6936
▁Ovi	-6937
▁Res	-6938
▁Rog	-6939
▁blu	-6940
▁gol	-6941
▁ros	-6942
▁und	-6943
▁uns	-6944
▁unt	-6945
ATION	-6946
Greed	-6947
ctice	-6948
ineer	-6949
ithms	-6950
licly	-6951
nthro	-6952
olate	-6953
onent	-6954
onger	-6955
ongly	-6956
oning	-6957
onpro	-6958
onstr	-6959
origh	-6960
oring	-6961
orith	-6962
ority	-6963
orman	-6964
ormat	-6965
ormed	-6966
ormer	-6967
osses	-6968
ossib	-6969
otent	-6970
othes	-6971
otice	-6972
ousan	-6973
ously	-6974
owers	-6975
owing	-6976
owpro	-6977
oying	-6978
pants	-6979
pecif	-6980
pical	-6981
plain	-6982
plate	-6983
plore	-6984
ponde	-6985
produ	-6986
pture	-6987
quare	-6988
quent	-6989
quest	-6990
radic	-6991
rance	-6992
range	-6993
ransl	-6994
rease	-6995
reate	-6996
refer	-6997
reful	-6998
riate	-6999
APT	-7000
GPT	-7001
kip	-7002
pyr	-7003
▁BB	-7004
▁Be	-7005
▁Bo	-7006
▁Dy	-7007
▁NL	-7008
▁NO	-7009
PTER	-7010
derb	-7011
gets	-7012
ialo	-7013
inia	-7014
iped	-7015
iply	-7016
pics	-7017
spon	-7018
uldn	-7019
▁+..	-7020
▁BER	-7021
▁Dar	-7022
▁Dem	-7023
▁Din	-7024
▁Dur	-7025
▁Nas	-7026
▁psy	-7027
ROMPT	-7028
assed	-7029
asses	-7030
bable	-7031
cause	-7032
derly	-7033
derst	-7034
ender	-7035
ggest	-7036
iable	-7037
iased	-7038
icial	-7039
ipant	-7040
lates	-7041
oices	-7042
omial	-7043
pende	-7044
pends	-7045
rates	-7046
ribed	-7047
ribes	-7048
ribut	-7049
rimin	-7050
roach	-7051
roduc	-7052
ropic	-7053
roves	-7054
rying	-7055
sampl	-7056
schen	-7057
sform	-7058
sible	-7059
sight	-7060
signs	-7061
ssion	-7062
ssist	-7063
ssive	-7064
stant	-7065
stems	-7066
strat	-7067
stric	-7068
tates	-7069
teran	-7070
tered	-7071
teres	-7072
thers	-7073
therw	-7074
tolog	-7075
uated	-7076
ubell	-7077
uding	-7078
uence	-7079
ulary	-7080
ullet	-7081
ultil	-7082
ultin	-7083
ultip	-7084
ultit	-7085
ument	-7086
ummar	-7087
unter	-7088
untri	-7089
urang	-7090
urces	-7091
usage	-7092
users	-7093
using	-7094
usion	-7095
usive	-7096
usted	-7097
uters	-7098
utore	-7099
7.2	-7100
7.6	-7101
7.7	-7102
7.9	-7103
bec	-7104
dry	-7105
eck	-7106
fie	-7107
oid	-7108
▁+·	-7109
RAIN	-7110
ares	-7111
chie	-7112
cify	-7113
craw	-7114
ffic	-7115
fric	-7116
gree	-7117
heet	-7118
hile	-7119
keep	-7120
mely	-7121
moun	-7122
pres	-7123
roec	-7124
rone	-7125
ware	-7126
▁Bec	-7127
▁Geh	-7128
▁ahe	-7129
▁app	-7130
amics	-7131
asted	-7132
asual	-7133
atric	-7134
atten	-7135
cific	-7136
ctric	-7137
dress	-7138
duces	-7139
ecall	-7140
ecent	-7141
fined	-7142
icien	-7143
istie	-7144
ought	-7145
ublic	-7146
utput	-7147
utter	-7148
uture	-7149
vance	-7150
verag	-7151
verst	-7152
while	-7153
ystem	-7154
▁(194	-7155
▁(195	-7156
▁(7.6	-7157
▁2018	-7158
▁7.1)	-7159
▁7.5.	-7160
▁Anth	-7161
▁Char	-7162
▁Chin	-7163
▁Corp	-7164
▁Craw	-7165
▁Embe	-7166
▁Figu	-7167
▁Fing	-7168
▁HIST	-7169
▁Hash	-7170
▁Hend	-7171
▁Inde	-7172
▁Inst	-7173
▁Jack	-7174
▁LANG	-7175
▁MODE	-7176
▁Mean	-7177
▁Mich	-7178
▁Mill	-7179
▁Norm	-7180
▁Pret	-7181
▁Samp	-7182
▁Ster	-7183
▁Tech	-7184
▁Ther	-7185
▁Thes	-7186
▁Thin	-7187
▁Thre	-7188
▁Tran	-7189
▁USPT	-7190
▁Valu	-7191
▁Webs	-7192
▁Weiz	-7193
▁Whil	-7194
▁abil	-7195
▁acce	-7196
▁accu	-7197
▁acro	-7198
▁actu	-7199
194	-7200
ATI	-7201
IST	-7202
mov	-7203
rue	-7204
▁GP	-7205
▁Ge	-7206
▁Go	-7207
▁−2	-7208
Jura	-7209
Qual	-7210
cura	-7211
ears	-7212
gath	-7213
hish	-7214
inue	-7215
oxic	-7216
pons	-7217
pted	-7218
reng	-7219
rite	-7220
uraf	-7221
urag	-7222
urns	-7223
▁rob	-7224
agand	-7225
arize	-7226
athem	-7227
ccurs	-7228
entry	-7229
erved	-7230
ervis	-7231
mpath	-7232
ocial	-7233
ouldn	-7234
ponse	-7235
ption	-7236
scent	-7237
scrib	-7238
sents	-7239
▁(7.2	-7240
▁(7.3	-7241
▁(7.4	-7242
▁(7.5	-7243
▁(7.7	-7244
▁(7.8	-7245
▁(7.9	-7246
▁2017	-7247
▁7.6.	-7248
▁Mask	-7249
▁adde	-7250
▁alig	-7251
▁allo	-7252
▁almo	-7253
▁alon	-7254
▁alre	-7255
▁amon	-7256
▁ampl	-7257
▁anal	-7258
▁answ	-7259
▁appl	-7260
▁arch	-7261
▁aris	-7262
▁arri	-7263
▁arro	-7264
▁aspe	-7265
▁asso	-7266
▁atte	-7267
▁auth	-7268
▁avoi	-7269
▁beco	-7270
▁biol	-7271
▁blin	-7272
▁cand	-7273
▁cave	-7274
▁chan	-7275
▁chap	-7276
▁chil	-7277
▁chos	-7278
▁comm	-7279
▁cond	-7280
▁conv	-7281
▁coul	-7282
▁coun	-7283
▁cour	-7284
▁craw	-7285
▁crew	-7286
▁deat	-7287
▁deca	-7288
▁deco	-7289
▁dedu	-7290
▁deep	-7291
▁depl	-7292
▁deve	-7293
▁diff	-7294
▁doct	-7295
▁doma	-7296
▁draw	-7297
▁eith	-7298
▁embe	-7299
,00	-7300
00,	-7301
11)	-7302
20)	-7303
202	-7304
4.2	-7305
700	-7306
SPy	-7307
did	-7308
lau	-7309
ypo	-7310
2,..	-7311
20).	-7312
NING	-7313
TING	-7314
iang	-7315
lays	-7316
lves	-7317
orld	-7318
ovel	-7319
rown	-7320
shel	-7321
tail	-7322
uild	-7323
unts	-7324
vail	-7325
ypes	-7326
▁Rea	-7327
anded	-7328
anger	-7329
clear	-7330
crawl	-7331
laude	-7332
unded	-7333
uplic	-7334
velop	-7335
vided	-7336
wners	-7337
yping	-7338
▁7.4.	-7339
▁emer	-7340
▁emit	-7341
▁emot	-7342
▁enco	-7343
▁enti	-7344
▁eval	-7345
▁ever	-7346
▁exis	-7347
▁expe	-7348
▁fill	-7349
▁fine	-7350
▁foll	-7351
▁forc	-7352
▁foun	-7353
▁fund	-7354
▁gain	-7355
▁garl	-7356
▁gett	-7357
▁grad	-7358
▁gram	-7359
▁grap	-7360
▁grou	-7361
▁grow	-7362
▁hall	-7363
▁howe	-7364
▁ille	-7365
▁impl	-7366
▁inan	-7367
▁incl	-7368
▁inco	-7369
▁inde	-7370
▁init	-7371
▁inst	-7372
▁intu	-7373
▁iter	-7374
▁lear	-7375
▁leas	-7376
▁leng	-7377
▁leve	-7378
▁line	-7379
▁logY	-7380
▁loos	-7381
▁ment	-7382
▁meth	-7383
▁migh	-7384
▁mode	-7385
▁mone	-7386
▁movi	-7387
▁netw	-7388
▁neur	-7389
▁offl	-7390
▁orig	-7391
▁pair	-7392
▁para	-7393
▁pars	-7394
▁peon	-7395
▁peop	-7396
▁perh	-7397
▁poin	-7398
▁poor	-7399
ION	-7400
ITI	-7401
LIZ	-7402
Raw	-7403
ubl	-7404
ubr	-7405
0,00	-7406
ALUA	-7407
ONAL	-7408
agaw	-7409
fman	-7410
gend	-7411
hman	-7412
ints	-7413
tart	-7414
▁-0.	-7415
▁181	-7416
▁Raw	-7417
▁See	-7418
▁max	-7419
0,1].	-7420
abels	-7421
adigm	-7422
agrap	-7423
asons	-7424
btext	-7425
eason	-7426
edman	-7427
etely	-7428
gency	-7429
infor	-7430
inted	-7431
iousn	-7432
ofman	-7433
ograp	-7434
onopo	-7435
poses	-7436
rigin	-7437
tions	-7438
ussed	-7439
volve	-7440
▁Alex	-7441
▁Howe	-7442
▁Shan	-7443
▁Shel	-7444
▁embo	-7445
▁feat	-7446
▁port	-7447
▁post	-7448
▁prec	-7449
▁pred	-7450
▁pref	-7451
▁prep	-7452
▁pres	-7453
▁pret	-7454
▁prev	-7455
▁pric	-7456
▁prim	-7457
▁proc	-7458
▁prod	-7459
▁prof	-7460
▁pros	-7461
▁prot	-7462
▁prov	-7463
▁qual	-7464
▁quer	-7465
▁quit	-7466
▁rath	-7467
▁reas	-7468
▁reco	-7469
▁recr	-7470
▁regu	-7471
▁rema	-7472
▁repl	-7473
▁resh	-7474
▁reso	-7475
▁resp	-7476
▁revi	-7477
▁roll	-7478
▁rust	-7479
▁samp	-7480
▁scra	-7481
▁scul	-7482
▁sear	-7483
▁sect	-7484
▁sele	-7485
▁sequ	-7486
▁sett	-7487
▁shap	-7488
▁shar	-7489
▁shor	-7490
▁side	-7491
▁sing	-7492
▁sket	-7493
▁smoo	-7494
▁soci	-7495
▁soft	-7496
▁sole	-7497
▁sort	-7498
▁spec	-7499
0,1	-7500
5):	-7501
ewh	-7502
ups	-7503
···	-7504
▁82	-7505
▁Yo	-7506
0,1]	-7507
LIZA	-7508
adem	-7509
alys	-7510
alyz	-7511
anwh	-7512
ginn	-7513
iews	-7514
pace	-7515
rief	-7516
riev	-7517
▁15,	-7518
▁Wik	-7519
▁bud	-7520
▁did	-7521
adeem	-7522
irgin	-7523
meric	-7524
mined	-7525
mplet	-7526
odget	-7527
phant	-7528
phist	-7529
quire	-7530
tereo	-7531
tific	-7532
whous	-7533
▁(202	-7534
▁Amer	-7535
▁Down	-7536
▁Perh	-7537
▁Qual	-7538
▁Real	-7539
▁Revi	-7540
▁bloc	-7541
▁curr	-7542
▁fict	-7543
▁heal	-7544
▁mask	-7545
▁obse	-7546
▁pron	-7547
▁spee	-7548
▁stag	-7549
▁stan	-7550
▁ster	-7551
▁stil	-7552
▁stor	-7553
▁stra	-7554
▁stru	-7555
▁subj	-7556
▁subs	-7557
▁subt	-7558
▁suff	-7559
▁surp	-7560
▁syco	-7561
▁syst	-7562
▁tell	-7563
▁thei	-7564
▁theo	-7565
▁thes	-7566
▁thir	-7567
▁thos	-7568
▁thre	-7569
▁thro	-7570
▁tool	-7571
▁tran	-7572
▁trig	-7573
▁unif	-7574
▁unig	-7575
▁unse	-7576
▁upco	-7577
▁usef	-7578
▁view	-7579
▁weap	-7580
▁webp	-7581
▁webs	-7582
▁weig	-7583
▁weir	-7584
▁welf	-7585
▁wher	-7586
▁whet	-7587
▁whic	-7588
▁whil	-7589
▁whos	-7590
▁worl	-7591
▁worr	-7592
▁wors	-7593
▁youn	-7594
DITION	-7595
GENERA	-7596
Greedy	-7597
ORICAL	-7598
THICAL	-7599
195	-7600
966	-7601
1996	-7602
NERA	-7603
awai	-7604
dify	-7605
lurs	-7606
odge	-7607
othw	-7608
ours	-7609
▁SAM	-7610
▁zer	-7611
966).	-7612
angel	-7613
dness	-7614
elfri	-7615
hesis	-7616
itles	-7617
klist	-7618
ports	-7619
pport	-7620
rised	-7621
riven	-7622
ubris	-7623
ypoth	-7624
▁100,	-7625
▁Cons	-7626
▁Pyth	-7627
▁bene	-7628
▁runn	-7629
▁summ	-7630
TIONAL	-7631
abeled	-7632
abilde	-7633
abilis	-7634
abilit	-7635
abular	-7636
accept	-7637
achine	-7638
aching	-7639
ackpro	-7640
acting	-7641
action	-7642
active	-7643
agated	-7644
aining	-7645
alking	-7646
aluate	-7647
ameter	-7648
anders	-7649
andful	-7650
anding	-7651
anguag	-7652
anisms	-7653
antast	-7654
apshot	-7655
apters	-7656
apting	-7657
areful	-7658
argest	-7659
arlini	-7660
arning	-7661
asking	-7662
assifi	-7663
assing	-7664
assive	-7665
atents	-7666
atoken	-7667
aution	-7668
ayaraj	-7669
bvious	-7670
cation	-7671
cement	-7672
cessed	-7673
chanis	-7674
chemat	-7675
chieve	-7676
cholog	-7677
cializ	-7678
ciated	-7679
cience	-7680
cifies	-7681
common	-7682
ctices	-7683
ctiont	-7684
ctives	-7685
cument	-7686
curacy	-7687
dament	-7688
deling	-7689
derson	-7690
dicate	-7691
dictab	-7692
dicted	-7693
dsight	-7694
ecoder	-7695
ection	-7696
ective	-7697
edical	-7698
elange	-7699
59.	-7700
Geh	-7701
ITH	-7702
RIC	-7703
dyn	-7704
mbe	-7705
zzl	-7706
ickm	-7707
zzle	-7708
▁dah	-7709
▁imm	-7710
Fried	-7711
RICAL	-7712
agawa	-7713
amily	-7714
erian	-7715
omput	-7716
orpor	-7717
othwe	-7718
unctu	-7719
urges	-7720
▁SAMP	-7721
▁beha	-7722
▁frau	-7723
▁mann	-7724
Prompt	-7725
VALUAT	-7726
adigms	-7727
agnost	-7728
ainted	-7729
boards	-7730
courag	-7731
culate	-7732
elpful	-7733
emical	-7734
enager	-7735
enbaum	-7736
enders	-7737
ending	-7738
eneral	-7739
enerat	-7740
energy	-7741
eneric	-7742
engths	-7743
ensive	-7744
entary	-7745
entifi	-7746
enting	-7747
entral	-7748
ercial	-7749
erence	-7750
erform	-7751
erials	-7752
erplex	-7753
errors	-7754
ersary	-7755
ersion	-7756
ertain	-7757
ervice	-7758
erving	-7759
essful	-7760
essing	-7761
essive	-7762
essors	-7763
esting	-7764
ethods	-7765
etting	-7766
etuned	-7767
etween	-7768
etwork	-7769
exible	-7770
extent	-7771
ferent	-7772
fessor	-7773
forman	-7774
format	-7775
gation	-7776
geable	-7777
gether	-7778
hapter	-7779
hether	-7780
ialect	-7781
iately	-7782
iation	-7783
icable	-7784
icated	-7785
ichard	-7786
icient	-7787
icroec	-7788
icroso	-7789
icture	-7790
iently	-7791
ifying	-7792
ighest	-7793
ighted	-7794
igning	-7795
ignore	-7796
ilable	-7797
ilders	-7798
ilding	-7799
01;	-7800
NTU	-7801
SSU	-7802
Str	-7803
cGu	-7804
fsk	-7805
tps	-7806
,908	-7807
Guff	-7808
Khat	-7809
araj	-7810
chni	-7811
cycl	-7812
niqu	-7813
pira	-7814
rror	-7815
tiso	-7816
ynab	-7817
···+	-7818
▁ArX	-7819
▁NOT	-7820
▁TEX	-7821
2)...	-7822
Khatt	-7823
awaii	-7824
ceeds	-7825
dynam	-7826
egend	-7827
elony	-7828
ember	-7829
imoto	-7830
keeps	-7831
onoun	-7832
oogle	-7833
rabic	-7834
ubMed	-7835
urafs	-7836
write	-7837
▁Darw	-7838
▁INTU	-7839
▁Issu	-7840
▁Pygm	-7841
▁Raff	-7842
▁tapp	-7843
Guffie	-7844
appens	-7845
edagog	-7846
ilerpl	-7847
illust	-7848
ilogra	-7849
ilters	-7850
images	-7851
imally	-7852
imated	-7853
imates	-7854
iments	-7855
imited	-7856
imized	-7857
inally	-7858
incipl	-7859
inding	-7860
inform	-7861
ingual	-7862
inimal	-7863
inimiz	-7864
iolate	-7865
ionate	-7866
ioning	-7867
ipedia	-7868
iplied	-7869
ircuit	-7870
istent	-7871
isting	-7872
istory	-7873
istral	-7874
istrib	-7875
iterat	-7876
itical	-7877
justed	-7878
kenste	-7879
lating	-7880
lation	-7881
learly	-7882
leased	-7883
lected	-7884
letely	-7885
letion	-7886
llowed	-7887
luding	-7888
luence	-7889
lution	-7890
magine	-7891
manded	-7892
maries	-7893
▁	-7894
e	-7895
t	-7896
a	-7897
o	-7898
i	-7899
n	-7900
s	-7901
r	-7902
l	-7903
h	-7904
d	-7905
c	-7906
g	-7907
u	-7908
m	-7909
p	-7910
f	-7911
w	-7912
b	-7913
y	-7914
.	-7915
,	-7916
k	-7917
v	-7918
x	-7919
(	-7920
)	-7921
T	-7922
L	-7923
A	-7924
2	-7925
1	-7926
0	-7927
-	-7928
E	-7929
7	-7930
M	-7931
C	-7932
I	-7933
’	-7934
:	-7935
S	-7936
W	-7937
F	-7938
q	-7939
P	-7940
G	-7941
R	-7942
N	-7943
5	-7944
3	-7945
O	-7946
D	-7947
4	-7948
?	-7949
U	-7950
z	-7951
H	-7952
•	-7953
B	-7954
6	-7955
=	-7956
9	-7957
;	-7958
8	-7959
j	-7960
τ	-7961
+	-7962
|	-7963
“	-7964
”	-7965
Z	-7966
‘	-7967
−	-7968
/	-7969
<	-7970
Q	-7971
V	-7972
—	-7973
Y	-7974
ˆ	-7975
⌧	-7976
!	-7977
]	-7978
θ	-7979
X	-7980
[	-7981
J	-7982
ŷ	-7983
"	-7984
>	-7985
·	-7986
∈	-7987
∼	-7988
K	-7989
×	-7990
←	-7991
'	-7992
`	-7993
{	-7994
}	-7995
≤	-7996
